<pad>	0
<s>	0
</s>	0
<unk>	0
en	-0
er	-1
in	-2
▁a	-3
▁t	-4
▁d	-5
ch	-6
▁,	-7
es	-8
on	-9
▁th	-10
un	-11
▁s	-12
▁.	-13
it	-14
is	-15
▁w	-16
at	-17
ie	-18
or	-19
an	-20
▁the	-21
##	-22
re	-23
▁b	-24
▁o	-25
al	-26
▁in	-27
ar	-28
▁f	-29
▁m	-30
ich	-31
te	-32
ion	-33
▁e	-34
▁an	-35
ur	-36
as	-37
le	-38
▁p	-39
▁c	-40
▁un	-41
▁S	-42
▁h	-43
us	-44
ge	-45
ent	-46
▁of	-47
ro	-48
▁n	-49
▁v	-50
AT	-51
ing	-52
▁A	-53
▁to	-54
ung	-55
▁and	-56
ll	-57
▁die	-58
ed	-59
om	-60
▁der	-61
▁E	-62
▁und	-63
▁I	-64
ig	-65
▁M	-66
ic	-67
st	-68
▁be	-69
▁D	-70
▁T	-71
▁is	-72
▁B	-73
▁P	-74
▁ein	-75
▁z	-76
ir	-77
▁g	-78
im	-79
el	-80
ut	-81
ra	-82
ter	-83
em	-84
▁W	-85
il	-86
ten	-87
▁F	-88
ot	-89
ation	-90
ol	-91
eit	-92
▁l	-93
der	-94
et	-95
am	-96
▁G	-97
▁##	-98
den	-99
▁re	-100
os	-101
##-	-102
##-##	-103
▁K	-104
ies	-105
hr	-106
um	-107
▁H	-108
▁C	-109
▁R	-110
op	-111
ct	-112
▁k	-113
sch	-114
uf	-115
ul	-116
ber	-117
iv	-118
lich	-119
▁&	-120
de	-121
▁V	-122
▁for	-123
ab	-124
ür	-125
isch	-126
▁Th	-127
icht	-128
ier	-129
▁L	-130
gen	-131
▁on	-132
qu	-133
▁das	-134
▁zu	-135
ere	-136
▁den	-137
ly	-138
ess	-139
est	-140
▁that	-141
▁U	-142
and	-143
id	-144
omm	-145
ce	-146
ers	-147
▁pro	-148
ein	-149
▁al	-150
▁r	-151
▁wh	-152
ow	-153
ach	-154
▁von	-155
▁ge	-156
ort	-157
▁st	-158
▁im	-159
uch	-160
▁y	-161
▁In	-162
ith	-163
ap	-164
▁N	-165
▁wir	-166
kt	-167
▁con	-168
if	-169
▁ist	-170
▁ver	-171
▁er	-172
▁with	-173
▁we	-174
▁1	-175
▁auf	-176
ver	-177
▁für	-178
urop	-179
ay	-180
ill	-181
▁des	-182
▁it	-183
▁mit	-184
▁are	-185
▁Z	-186
ve	-187
ad	-188
ts	-189
▁as	-190
▁The	-191
ind	-192
▁de	-193
▁so	-194
ck	-195
▁2	-196
▁St	-197
▁ne	-198
▁yo	-199
▁(	-200
iss	-201
▁)	-202
▁dies	-203
end	-204
▁Europ	-205
af	-206
ate	-207
ment	-208
ik	-209
▁se	-210
up	-211
ist	-212
ungen	-213
▁Un	-214
th	-215
nen	-216
ischen	-217
▁Ver	-218
la	-219
men	-220
ib	-221
▁O	-222
▁als	-223
ust	-224
▁eine	-225
▁ex	-226
ak	-227
pe	-228
ant	-229
▁dem	-230
▁this	-231
ne	-232
for	-233
ah	-234
▁An	-235
ity	-236
▁or	-237
▁Sie	-238
ive	-239
ien	-240
▁j	-241
▁J	-242
ial	-243
▁nicht	-244
▁:	-245
▁co	-246
▁wer	-247
art	-248
quot	-249
ug	-250
▁not	-251
und	-252
▁ha	-253
ann	-254
port	-255
▁-	-256
über	-257
ste	-258
▁le	-259
apos	-260
▁sich	-261
▁all	-262
00	-263
▁Re	-264
än	-265
ub	-266
▁werden	-267
tel	-268
ff	-269
▁by	-270
we	-271
▁have	-272
▁dass	-273
▁at	-274
rom	-275
igen	-276
ag	-277
▁es	-278
igh	-279
▁aus	-280
ens	-281
ass	-282
▁Die	-283
ain	-284
▁you	-285
▁sh	-286
uld	-287
all	-288
▁will	-289
▁com	-290
▁ab	-291
▁uns	-292
od	-293
iel	-294
ern	-295
▁über	-296
▁i	-297
ions	-298
ungs	-299
aus	-300
ure	-301
▁me	-302
▁Pr	-303
ze	-304
ommiss	-305
▁which	-306
age	-307
▁Sch	-308
ted	-309
▁was	-310
▁auch	-311
ran	-312
ben	-313
lie	-314
▁Europe	-315
▁from	-316
▁Pro	-317
▁Be	-318
ahr	-319
hen	-320
du	-321
och	-322
hal	-323
ip	-324
▁um	-325
▁We	-326
ard	-327
▁us	-328
ould	-329
▁sch	-330
▁sind	-331
uss	-332
▁ch	-333
tern	-334
pr	-335
▁pr	-336
ident	-337
ommission	-338
▁En	-339
tr	-340
▁ent	-341
og	-342
▁vor	-343
fer	-344
▁wird	-345
▁has	-346
▁hab	-347
esch	-348
ue	-349
mer	-350
pl	-351
schaf	-352
ft	-353
iz	-354
▁en	-355
▁wor	-356
ss	-357
ön	-358
ine	-359
▁res	-360
gr	-361
▁Er	-362
ud	-363
llen	-364
ang	-365
▁Par	-366
oc	-367
ous	-368
ick	-369
ische	-370
▁wie	-371
ok	-372
▁da	-373
enn	-374
ast	-375
ät	-376
▁he	-377
▁can	-378
▁man	-379
▁am	-380
our	-381
urch	-382
able	-383
etz	-384
ise	-385
err	-386
form	-387
▁Ar	-388
ige	-389
ire	-390
me	-391
keit	-392
▁hat	-393
▁ich	-394
▁oder	-395
▁sein	-396
▁our	-397
ost	-398
otel	-399
ament	-400
ore	-401
ert	-402
erv	-403
cc	-404
ia	-405
▁European	-406
▁Mit	-407
ations	-408
▁zur	-409
▁also	-410
ult	-411
beit	-412
be	-413
▁200	-414
▁haben	-415
▁sie	-416
▁comp	-417
▁ad	-418
ational	-419
ction	-420
heit	-421
ical	-422
▁/	-423
ese	-424
ition	-425
ish	-426
lichen	-427
ice	-428
▁Ein	-429
ated	-430
are	-431
▁do	-432
▁bei	-433
dern	-434
▁kön	-435
out	-436
▁einer	-437
▁!	-438
ome	-439
▁Aus	-440
rit	-441
olit	-442
▁?	-443
▁Wir	-444
aten	-445
▁Ge	-446
tz	-447
hl	-448
ther	-449
▁op	-450
fü	-451
pro	-452
he	-453
ect	-454
ark	-455
ieren	-456
ord	-457
▁unter	-458
se	-459
▁ap	-460
▁Parl	-461
▁3	-462
ru	-463
▁nach	-464
▁qu	-465
ün	-466
▁einen	-467
▁part	-468
▁your	-469
tet	-470
schaft	-471
iert	-472
ac	-473
ms	-474
ign	-475
ht	-476
är	-477
▁Das	-478
her	-479
▁te	-480
▁Fra	-481
elt	-482
ight	-483
▁Union	-484
▁&#	-485
▁its	-486
vel	-487
ates	-488
ake	-489
ob	-490
oun	-491
▁reg	-492
tra	-493
▁Ber	-494
▁gro	-495
gt	-496
ite	-497
▁durch	-498
▁ro	-499
▁Ab	-500
ank	-501
▁It	-502
▁Ich	-503
au	-504
▁go	-505
ger	-506
ian	-507
▁Vor	-508
▁but	-509
yste	-510
fen	-511
▁wur	-512
ember	-513
▁ag	-514
▁können	-515
▁there	-516
ary	-517
ide	-518
cial	-519
▁19	-520
▁sp	-521
oll	-522
liche	-523
▁Mr	-524
äs	-525
▁EU	-526
▁Gr	-527
▁tra	-528
▁ste	-529
▁Commission	-530
ose	-531
▁dar	-532
hre	-533
▁spe	-534
ör	-535
ov	-536
▁war	-537
▁Herr	-538
anz	-539
ear	-540
cht	-541
ual	-542
chen	-543
▁inc	-544
sp	-545
▁would	-546
▁mö	-547
ime	-548
eren	-549
▁more	-550
ance	-551
ail	-552
▁zum	-553
▁..	-554
tw	-555
ile	-556
▁–	-557
▁their	-558
▁Al	-559
pt	-560
▁einem	-561
▁cont	-562
▁gen	-563
ommen	-564
rie	-565
▁been	-566
▁Te	-567
▁bes	-568
▁&#9	-569
amp	-570
reat	-571
▁ar	-572
con	-573
uß	-574
ute	-575
glich	-576
imm	-577
ase	-578
▁Europä	-579
▁Le	-580
chte	-581
ame	-582
ong	-583
▁De	-584
▁This	-585
act	-586
chn	-587
▁one	-588
▁fin	-589
▁kann	-590
utz	-591
▁acc	-592
▁’	-593
ild	-594
▁dis	-595
▁up	-596
ück	-597
▁diese	-598
▁per	-599
▁Ch	-600
oss	-601
▁Sp	-602
gra	-603
▁Hotel	-604
▁nur	-605
üss	-606
ack	-607
che	-608
▁coun	-609
▁...	-610
▁Unter	-611
ont	-612
ble	-613
▁comm	-614
ugh	-615
ents	-616
▁cl	-617
▁Auf	-618
▁pl	-619
one	-620
▁should	-621
sten	-622
▁alle	-623
gan	-624
ges	-625
▁Der	-626
▁work	-627
▁bet	-628
ahl	-629
hn	-630
▁new	-631
ike	-632
wer	-633
▁;	-634
▁Se	-635
▁For	-636
ution	-637
▁sup	-638
▁out	-639
geb	-640
eine	-641
▁Pres	-642
ely	-643
hmen	-644
pos	-645
ree	-646
▁Jahr	-647
äsident	-648
▁dieser	-649
zu	-650
land	-651
hren	-652
auf	-653
▁ob	-654
ierung	-655
ld	-656
igkeit	-657
per	-658
▁jed	-659
▁4	-660
▁Es	-661
olle	-662
ner	-663
▁countr	-664
▁Dies	-665
▁pre	-666
reich	-667
ons	-668
▁very	-669
▁ind	-670
av	-671
▁must	-672
▁produ	-673
▁inter	-674
ings	-675
▁int	-676
▁ma	-677
▁5	-678
▁who	-679
▁daß	-680
▁noch	-681
▁zw	-682
▁other	-683
▁ev	-684
ktion	-685
▁Kommission	-686
ities	-687
formation	-688
bar	-689
ähr	-690
ke	-691
▁pe	-692
▁weit	-693
▁need	-694
▁they	-695
erm	-696
gram	-697
ink	-698
▁year	-699
ces	-700
▁no	-701
▁wurde	-702
▁ber	-703
ors	-704
tell	-705
wo	-706
▁President	-707
ments	-708
mit	-709
ater	-710
▁like	-711
▁only	-712
▁intern	-713
▁mehr	-714
mp	-715
▁soll	-716
▁time	-717
▁fe	-718
▁cons	-719
▁str	-720
schen	-721
▁“	-722
gel	-723
▁aber	-724
▁bec	-725
rans	-726
▁Präsident	-727
▁about	-728
oin	-729
rat	-730
glie	-731
olog	-732
▁wenn	-733
ystem	-734
üssen	-735
▁polit	-736
▁Y	-737
teil	-738
▁Reg	-739
ible	-740
fe	-741
▁any	-742
entr	-743
▁sehr	-744
ious	-745
assen	-746
▁prov	-747
▁ges	-748
ced	-749
uen	-750
leich	-751
ange	-752
▁müssen	-753
lin	-754
velop	-755
xt	-756
▁eff	-757
▁ra	-758
fl	-759
▁wo	-760
▁unser	-761
ally	-762
ry	-763
ität	-764
enz	-765
ject	-766
▁Mitglie	-767
nah	-768
alt	-769
hnen	-770
cess	-771
▁sow	-772
iament	-773
oy	-774
ans	-775
▁Arbeit	-776
arbeit	-777
ubl	-778
ütz	-779
▁these	-780
▁serv	-781
▁off	-782
▁Parlament	-783
onder	-784
▁rec	-785
ient	-786
ammen	-787
▁dire	-788
▁sol	-789
ook	-790
▁So	-791
fahr	-792
▁Member	-793
▁vie	-794
fore	-795
ular	-796
io	-797
atz	-798
ibt	-799
▁import	-800
▁20	-801
▁hin	-802
ied	-803
▁Men	-804
ility	-805
usammen	-806
own	-807
led	-808
▁diesem	-809
▁inst	-810
äl	-811
ider	-812
irst	-813
▁if	-814
erson	-815
▁develop	-816
ople	-817
▁Um	-818
ures	-819
ßen	-820
ause	-821
igt	-822
aaten	-823
▁gegen	-824
▁la	-825
ring	-826
ph	-827
als	-828
▁such	-829
▁report	-830
halten	-831
wn	-832
wend	-833
fol	-834
cy	-835
▁act	-836
ism	-837
▁rel	-838
▁gr	-839
unden	-840
änd	-841
▁Ma	-842
ays	-843
▁ihre	-844
itu	-845
▁Ne	-846
▁Europäischen	-847
▁pol	-848
▁bis	-849
▁ins	-850
▁sub	-851
etzt	-852
▁Parliament	-853
sche	-854
iger	-855
iven	-856
▁Zeit	-857
▁my	-858
▁dec	-859
ateg	-860
dition	-861
ative	-862
▁conc	-863
▁over	-864
▁%	-865
ks	-866
ific	-867
▁Ü	-868
nehmen	-869
▁people	-870
▁into	-871
ale	-872
▁gew	-873
▁were	-874
▁well	-875
▁Mitglied	-876
▁ihr	-877
kte	-878
führ	-879
lo	-880
▁gem	-881
omp	-882
▁best	-883
▁As	-884
▁international	-885
ices	-886
iden	-887
▁Mar	-888
ken	-889
▁some	-890
erg	-891
▁use	-892
▁möchte	-893
▁viel	-894
▁Im	-895
▁Or	-896
ement	-897
ats	-898
bs	-899
▁kn	-900
▁inv	-901
enden	-902
acht	-903
isten	-904
▁mark	-905
▁hier	-906
▁what	-907
▁dif	-908
▁bas	-909
▁Über	-910
▁her	-911
ene	-912
▁States	-913
▁sa	-914
▁high	-915
▁hotel	-916
▁trans	-917
arge	-918
conom	-919
icher	-920
▁bed	-921
cil	-922
▁Q	-923
▁Coun	-924
▁eines	-925
▁loc	-926
▁Me	-927
ickl	-928
▁Kon	-929
▁incl	-930
▁fre	-931
▁first	-932
uropä	-933
ull	-934
very	-935
▁6	-936
amen	-937
ory	-938
▁hel	-939
▁most	-940
▁tr	-941
▁countries	-942
▁vom	-943
ou	-944
▁Pl	-945
▁than	-946
ention	-947
▁wicht	-948
zeit	-949
wor	-950
ett	-951
▁when	-952
▁lie	-953
olitik	-954
▁vers	-955
▁partic	-956
▁Entw	-957
▁his	-958
▁Bericht	-959
fr	-960
▁under	-961
iet	-962
itte	-963
esent	-964
▁He	-965
▁them	-966
pect	-967
ards	-968
ages	-969
▁just	-970
▁how	-971
1;	-972
▁&#91;	-973
itz	-974
les	-975
ace	-976
▁ele	-977
ating	-978
3;	-979
▁&#93;	-980
inn	-981
▁Menschen	-982
▁wel	-983
▁Council	-984
sicht	-985
▁aut	-986
▁polic	-987
▁dam	-988
▁now	-989
▁sowie	-990
▁Fl	-991
▁europä	-992
ict	-993
▁gu	-994
▁support	-995
att	-996
▁again	-997
abe	-998
▁important	-999
▁room	-1000
▁fr	-1001
▁make	-1002
▁dieses	-1003
▁Land	-1004
kl	-1005
änder	-1006
ond	-1007
äch	-1008
▁pla	-1009
ights	-1010
els	-1011
▁gibt	-1012
▁Comm	-1013
ween	-1014
tre	-1015
▁sc	-1016
▁econom	-1017
halt	-1018
▁many	-1019
▁Nach	-1020
ues	-1021
▁mo	-1022
kommen	-1023
▁ass	-1024
▁between	-1025
stütz	-1026
essen	-1027
▁techn	-1028
▁propos	-1029
▁requ	-1030
halb	-1031
fter	-1032
oth	-1033
▁Verb	-1034
je	-1035
▁Mitgliedst	-1036
▁poss	-1037
▁leg	-1038
por	-1039
ware	-1040
issen	-1041
ös	-1042
▁Bed	-1043
any	-1044
str	-1045
▁Entwickl	-1046
▁because	-1047
ters	-1048
rei	-1049
fin	-1050
▁min	-1051
ives	-1052
▁zwischen	-1053
ließ	-1054
▁take	-1055
ence	-1056
wir	-1057
ho	-1058
ural	-1059
▁Intern	-1060
▁market	-1061
▁bereit	-1062
red	-1063
▁kon	-1064
legen	-1065
öglich	-1066
hand	-1067
▁world	-1068
▁pos	-1069
▁em	-1070
zie	-1071
bst	-1072
ote	-1073
▁fo	-1074
ful	-1075
▁Ent	-1076
uer	-1077
ublic	-1078
▁muss	-1079
▁find	-1080
▁All	-1081
tschaft	-1082
▁Produ	-1083
ever	-1084
arm	-1085
oint	-1086
blem	-1087
▁sel	-1088
mal	-1089
cted	-1090
rough	-1091
▁Ges	-1092
▁par	-1093
▁hand	-1094
▁US	-1095
▁unsere	-1096
▁7	-1097
▁Art	-1098
▁cle	-1099
▁national	-1100
▁good	-1101
zial	-1102
▁199	-1103
hör	-1104
ath	-1105
▁0	-1106
▁Min	-1107
▁keine	-1108
▁Ihre	-1109
▁where	-1110
▁son	-1111
weit	-1112
▁av	-1113
dr	-1114
ount	-1115
▁bie	-1116
igung	-1117
▁made	-1118
▁8	-1119
ality	-1120
▁great	-1121
▁rem	-1122
▁Ihnen	-1123
▁nat	-1124
▁10	-1125
▁disc	-1126
▁two	-1127
hm	-1128
lä	-1129
▁information	-1130
▁„	-1131
▁9	-1132
▁end	-1133
eschä	-1134
rauch	-1135
uring	-1136
nis	-1137
▁imp	-1138
▁every	-1139
achen	-1140
▁see	-1141
urn	-1142
dem	-1143
eration	-1144
urs	-1145
▁einz	-1146
▁verb	-1147
▁Mitgliedstaaten	-1148
vern	-1149
off	-1150
▁Fin	-1151
öff	-1152
▁years	-1153
▁Grund	-1154
rä	-1155
▁If	-1156
ße	-1157
▁had	-1158
▁mein	-1159
▁way	-1160
▁even	-1161
amil	-1162
▁product	-1163
unkt	-1164
▁anderen	-1165
schie	-1166
fort	-1167
▁Europa	-1168
eln	-1169
▁get	-1170
ium	-1171
▁through	-1172
laub	-1173
rag	-1174
▁system	-1175
▁Ä	-1176
rol	-1177
▁iss	-1178
▁su	-1179
pen	-1180
▁Am	-1181
cept	-1182
geben	-1183
▁Zusammen	-1184
▁Seit	-1185
▁Ex	-1186
chten	-1187
▁those	-1188
▁Bere	-1189
stand	-1190
ision	-1191
forder	-1192
ession	-1193
▁Fr	-1194
ischer	-1195
aut	-1196
gend	-1197
▁ange	-1198
▁weiter	-1199
ält	-1200
immer	-1201
ER	-1202
air	-1203
▁gl	-1204
stell	-1205
ited	-1206
ister	-1207
▁Wenn	-1208
▁immer	-1209
lag	-1210
ws	-1211
▁order	-1212
▁tak	-1213
ower	-1214
▁direct	-1215
ganis	-1216
ows	-1217
ußer	-1218
trag	-1219
weise	-1220
▁being	-1221
▁policy	-1222
▁may	-1223
lick	-1224
urr	-1225
▁right	-1226
▁Bes	-1227
▁ac	-1228
▁Vorsch	-1229
erein	-1230
▁dann	-1231
ument	-1232
▁ke	-1233
▁cent	-1234
ster	-1235
uman	-1236
▁Haus	-1237
leg	-1238
ina	-1239
hne	-1240
ituation	-1241
▁There	-1242
▁rest	-1243
unity	-1244
▁Wh	-1245
rif	-1246
▁fact	-1247
▁num	-1248
▁beg	-1249
alls	-1250
▁Bereich	-1251
▁beste	-1252
ivers	-1253
▁includ	-1254
▁appro	-1255
▁car	-1256
isen	-1257
▁On	-1258
chts	-1259
▁”	-1260
▁belie	-1261
ital	-1262
▁diesen	-1263
min	-1264
▁own	-1265
day	-1266
▁differ	-1267
▁wieder	-1268
▁particular	-1269
stit	-1270
▁Des	-1271
▁damit	-1272
▁ger	-1273
gest	-1274
nahmen	-1275
▁zwe	-1276
istr	-1277
▁gesch	-1278
▁Welt	-1279
ionen	-1280
▁ganz	-1281
▁wurden	-1282
ior	-1283
▁process	-1284
▁mon	-1285
lex	-1286
▁Gro	-1287
aur	-1288
▁fü	-1289
eins	-1290
▁Frau	-1291
▁resp	-1292
isse	-1293
▁know	-1294
▁sm	-1295
ough	-1296
▁del	-1297
icherheit	-1298
adt	-1299
nung	-1300
▁At	-1301
iness	-1302
itt	-1303
▁Ihr	-1304
vor	-1305
▁bus	-1306
▁bu	-1307
▁Diese	-1308
sel	-1309
atter	-1310
zeich	-1311
▁ph	-1312
gramm	-1313
▁Hand	-1314
▁area	-1315
ys	-1316
▁main	-1317
read	-1318
ouse	-1319
get	-1320
▁Con	-1321
innen	-1322
▁quest	-1323
▁Geb	-1324
▁cre	-1325
alen	-1326
ändern	-1327
par	-1328
elle	-1329
▁kein	-1330
▁unserer	-1331
zen	-1332
schieden	-1333
▁stand	-1334
alk	-1335
ool	-1336
▁Rat	-1337
itä	-1338
▁agre	-1339
▁You	-1340
▁deb	-1341
itions	-1342
rechen	-1343
▁here	-1344
▁help	-1345
▁Inter	-1346
▁Her	-1347
▁Zu	-1348
▁habe	-1349
000	-1350
▁Gem	-1351
ade	-1352
▁cour	-1353
hin	-1354
▁after	-1355
az	-1356
▁real	-1357
ix	-1358
▁Bar	-1359
▁form	-1360
com	-1361
▁sondern	-1362
round	-1363
▁Str	-1364
schafts	-1365
▁jedoch	-1366
▁Man	-1367
old	-1368
▁Bür	-1369
▁Br	-1370
▁15	-1371
▁seine	-1372
▁political	-1373
▁Europäische	-1374
▁public	-1375
▁gut	-1376
▁place	-1377
▁Information	-1378
▁ide	-1379
ests	-1380
ler	-1381
▁prote	-1382
ruck	-1383
ince	-1384
tegr	-1385
eth	-1386
▁possible	-1387
gesch	-1388
▁concern	-1389
▁dr	-1390
piel	-1391
▁ser	-1392
▁sim	-1393
▁same	-1394
eld	-1395
▁Ind	-1396
▁clear	-1397
▁Ste	-1398
▁etw	-1399
ently	-1400
mittel	-1401
▁ausge	-1402
ende	-1403
▁est	-1404
ktiv	-1405
iron	-1406
ply	-1407
ved	-1408
▁Fre	-1409
öglichkeit	-1410
▁human	-1411
▁neue	-1412
▁wür	-1413
ierte	-1414
bens	-1415
▁heute	-1416
schließ	-1417
ata	-1418
▁want	-1419
▁bef	-1420
▁could	-1421
▁economic	-1422
ines	-1423
▁contin	-1424
▁person	-1425
▁effect	-1426
▁Unternehmen	-1427
tens	-1428
▁number	-1429
▁offer	-1430
fach	-1431
plic	-1432
▁Än	-1433
▁say	-1434
eral	-1435
lagen	-1436
▁incre	-1437
▁Teil	-1438
▁curr	-1439
▁does	-1440
▁development	-1441
▁gleich	-1442
ock	-1443
▁within	-1444
▁then	-1445
▁Vers	-1446
gung	-1447
▁Pre	-1448
▁Schl	-1449
▁Kolle	-1450
lement	-1451
▁level	-1452
▁Germ	-1453
ax	-1454
▁sec	-1455
▁Fran	-1456
▁Bet	-1457
ertain	-1458
▁wen	-1459
lish	-1460
line	-1461
tellt	-1462
▁avail	-1463
▁prof	-1464
ants	-1465
iti	-1466
▁Änder	-1467
osten	-1468
▁rights	-1469
▁bereits	-1470
ßnahmen	-1471
▁12	-1472
▁val	-1473
▁How	-1474
isk	-1475
ustr	-1476
raft	-1477
▁ohne	-1478
▁vis	-1479
▁fest	-1480
▁equ	-1481
aup	-1482
▁selbst	-1483
▁used	-1484
▁mich	-1485
▁fund	-1486
ics	-1487
▁both	-1488
▁Richt	-1489
uro	-1490
ähl	-1491
▁lang	-1492
▁against	-1493
▁18	-1494
▁much	-1495
▁Arbeits	-1496
12	-1497
▁free	-1498
▁therefore	-1499
▁sur	-1500
▁Gen	-1501
▁med	-1502
▁country	-1503
lage	-1504
▁Kl	-1505
▁wichtig	-1506
▁mak	-1507
use	-1508
▁Is	-1509
▁hist	-1510
hip	-1511
icult	-1512
▁var	-1513
▁Wer	-1514
▁Wie	-1515
▁sign	-1516
utions	-1517
▁region	-1518
▁sollte	-1519
AR	-1520
▁fun	-1521
fern	-1522
entlich	-1523
ustom	-1524
▁Hin	-1525
▁play	-1526
▁ihrer	-1527
▁neuen	-1528
▁europäischen	-1529
▁bo	-1530
ftware	-1531
ander	-1532
▁pra	-1533
bes	-1534
ierten	-1535
viron	-1536
äre	-1537
setz	-1538
ife	-1539
▁Jahren	-1540
▁bring	-1541
▁full	-1542
ivid	-1543
que	-1544
▁cr	-1545
ux	-1546
ständ	-1547
its	-1548
▁provid	-1549
ulation	-1550
▁bre	-1551
ma	-1552
ploy	-1553
10	-1554
ven	-1555
▁social	-1556
▁andere	-1557
reichen	-1558
satz	-1559
aff	-1560
▁eigen	-1561
▁Fe	-1562
▁zwei	-1563
▁point	-1564
fahren	-1565
agement	-1566
▁view	-1567
erung	-1568
urg	-1569
▁think	-1570
▁group	-1571
▁Sicherheit	-1572
ically	-1573
▁last	-1574
▁finan	-1575
kun	-1576
wert	-1577
▁exp	-1578
▁Part	-1579
br	-1580
eut	-1581
▁denn	-1582
öß	-1583
▁exper	-1584
▁without	-1585
▁Mon	-1586
▁Entwicklung	-1587
▁still	-1588
▁opt	-1589
ittee	-1590
ets	-1591
▁letz	-1592
▁spec	-1593
vironment	-1594
ichte	-1595
▁Frage	-1596
▁Daten	-1597
▁long	-1598
▁priv	-1599
▁meas	-1600
▁ens	-1601
licher	-1602
immt	-1603
▁Ap	-1604
▁mod	-1605
▁Tra	-1606
▁adv	-1607
▁finden	-1608
▁sollten	-1609
äng	-1610
▁down	-1611
yp	-1612
▁access	-1613
▁consider	-1614
esse	-1615
way	-1616
▁different	-1617
▁denen	-1618
▁services	-1619
eng	-1620
iver	-1621
net	-1622
kehr	-1623
▁Kommiss	-1624
▁möglich	-1625
▁gemeins	-1626
▁Bürger	-1627
work	-1628
ffen	-1629
▁govern	-1630
▁cap	-1631
under	-1632
▁Person	-1633
▁verschieden	-1634
nahme	-1635
▁ers	-1636
▁gel	-1637
▁prin	-1638
esen	-1639
▁Kont	-1640
▁back	-1641
▁available	-1642
ohl	-1643
wort	-1644
gar	-1645
ST	-1646
▁att	-1647
ists	-1648
entral	-1649
zeug	-1650
ondere	-1651
ährend	-1652
ritt	-1653
ize	-1654
fra	-1655
▁bietet	-1656
▁unterstütz	-1657
ationen	-1658
▁require	-1659
▁kle	-1660
▁able	-1661
ness	-1662
over	-1663
ope	-1664
▁Aut	-1665
ollow	-1666
ret	-1667
richt	-1668
▁business	-1669
▁look	-1670
cond	-1671
▁Stand	-1672
▁Mittel	-1673
uture	-1674
▁special	-1675
ude	-1676
hor	-1677
akt	-1678
ars	-1679
let	-1680
obal	-1681
ibility	-1682
▁air	-1683
pf	-1684
urther	-1685
tend	-1686
zahl	-1687
ep	-1688
ised	-1689
iß	-1690
ready	-1691
▁small	-1692
press	-1693
▁Wor	-1694
atur	-1695
ruct	-1696
▁custom	-1697
ability	-1698
ience	-1699
▁dazu	-1700
▁Dem	-1701
▁liegt	-1702
hol	-1703
▁ben	-1704
▁before	-1705
tem	-1706
ystems	-1707
▁cor	-1708
war	-1709
afür	-1710
▁viele	-1711
▁allen	-1712
OR	-1713
▁machen	-1714
ator	-1715
▁gest	-1716
▁pers	-1717
ispiel	-1718
▁already	-1719
alth	-1720
▁open	-1721
ienst	-1722
▁believe	-1723
▁future	-1724
▁ze	-1725
▁aller	-1726
▁Ro	-1727
▁design	-1728
▁weil	-1729
▁et	-1730
▁bek	-1731
vers	-1732
ahmen	-1733
▁fl	-1734
▁som	-1735
ilt	-1736
aben	-1737
▁service	-1738
▁hal	-1739
ward	-1740
▁course	-1741
yn	-1742
▁set	-1743
▁project	-1744
ahre	-1745
ders	-1746
▁That	-1747
▁Med	-1748
gem	-1749
▁Ziel	-1750
▁today	-1751
ktur	-1752
▁products	-1753
cl	-1754
▁Möglichkeit	-1755
▁seiner	-1756
▁darauf	-1757
▁too	-1758
schl	-1759
▁Them	-1760
politik	-1761
▁jetzt	-1762
kten	-1763
zug	-1764
▁To	-1765
▁30	-1766
gramme	-1767
ante	-1768
annt	-1769
agen	-1770
aher	-1771
▁cann	-1772
▁könn	-1773
welt	-1774
▁art	-1775
▁eing	-1776
▁Finanz	-1777
une	-1778
▁But	-1779
▁Serv	-1780
ves	-1781
jor	-1782
esell	-1783
▁quality	-1784
▁environment	-1785
äh	-1786
urity	-1787
stitution	-1788
man	-1789
äß	-1790
▁größ	-1791
ismus	-1792
ving	-1793
▁fac	-1794
▁day	-1795
▁respons	-1796
▁Rahmen	-1797
ossen	-1798
ctor	-1799
▁Sh	-1800
▁Lage	-1801
hält	-1802
▁Informationen	-1803
▁cannot	-1804
lease	-1805
▁data	-1806
itiz	-1807
▁geb	-1808
imin	-1809
ron	-1810
ting	-1811
▁einfach	-1812
ins	-1813
▁geht	-1814
▁certain	-1815
▁prev	-1816
omen	-1817
nisse	-1818
▁Maßnahmen	-1819
▁fra	-1820
▁kl	-1821
▁bin	-1822
los	-1823
▁schon	-1824
▁mir	-1825
▁bro	-1826
▁Mein	-1827
zus	-1828
▁seit	-1829
▁case	-1830
▁Internet	-1831
▁Rechts	-1832
▁eas	-1833
ample	-1834
▁follow	-1835
▁And	-1836
▁offers	-1837
aterial	-1838
öl	-1839
▁redu	-1840
▁individ	-1841
▁Energ	-1842
▁instit	-1843
ately	-1844
lemen	-1845
▁2009	-1846
other	-1847
ica	-1848
▁Verein	-1849
▁Pol	-1850
▁neg	-1851
▁Zimmer	-1852
olution	-1853
▁Gemein	-1854
chie	-1855
▁einige	-1856
iving	-1857
▁cal	-1858
▁dafür	-1859
okrat	-1860
▁Russ	-1861
res	-1862
ichten	-1863
▁regard	-1864
▁put	-1865
▁Commissioner	-1866
▁impro	-1867
▁question	-1868
abei	-1869
▁city	-1870
▁Stadt	-1871
klär	-1872
▁je	-1873
▁voll	-1874
olid	-1875
▁ter	-1876
ungsant	-1877
▁integr	-1878
▁Amer	-1879
ätz	-1880
raph	-1881
ually	-1882
affen	-1883
ential	-1884
ified	-1885
▁emp	-1886
ird	-1887
folg	-1888
▁change	-1889
iber	-1890
▁Ad	-1891
▁repr	-1892
▁Herrn	-1893
ccess	-1894
▁rev	-1895
▁oper	-1896
ren	-1897
ctions	-1898
▁reas	-1899
ND	-1900
eich	-1901
▁Spe	-1902
▁during	-1903
▁financial	-1904
tain	-1905
imes	-1906
mb	-1907
▁öff	-1908
utes	-1909
▁Uns	-1910
cr	-1911
▁citiz	-1912
orn	-1913
▁activ	-1914
▁deut	-1915
llt	-1916
▁far	-1917
üh	-1918
▁zurück	-1919
ilit	-1920
▁problem	-1921
allen	-1922
ahn	-1923
anden	-1924
grund	-1925
▁Ö	-1926
▁prom	-1927
▁Jahre	-1928
▁saf	-1929
▁ihren	-1930
124	-1931
ünd	-1932
ucht	-1933
▁said	-1934
operation	-1935
▁energ	-1936
▁Bei	-1937
▁cost	-1938
▁el	-1939
▁nun	-1940
▁invest	-1941
▁debate	-1942
ichter	-1943
amm	-1944
ove	-1945
124;	-1946
▁&#124;	-1947
▁fol	-1948
▁issue	-1949
▁Aussch	-1950
▁allem	-1951
▁stat	-1952
▁large	-1953
inen	-1954
itive	-1955
uchen	-1956
itor	-1957
▁modern	-1958
bsite	-1959
▁means	-1960
▁achie	-1961
handl	-1962
▁Pal	-1963
punkt	-1964
▁Für	-1965
kunft	-1966
▁entw	-1967
▁Go	-1968
▁ask	-1969
▁proposal	-1970
▁meine	-1971
cing	-1972
▁famil	-1973
▁member	-1974
iele	-1975
▁Form	-1976
co	-1977
▁applic	-1978
▁Kin	-1979
▁zusammen	-1980
▁rooms	-1981
äm	-1982
ily	-1983
▁example	-1984
▁eng	-1985
▁major	-1986
isierung	-1987
ather	-1988
SC	-1989
▁Ph	-1990
ways	-1991
aum	-1992
reib	-1993
▁Best	-1994
nov	-1995
▁present	-1996
isl	-1997
▁including	-1998
scheid	-1999
▁Als	-2000
▁Bo	-2001
▁meet	-2002
▁conf	-2003
▁Ger	-2004
▁besonder	-2005
▁Our	-2006
▁since	-2007
▁However	-2008
lichkeit	-2009
▁strateg	-2010
▁rap	-2011
iend	-2012
▁Eine	-2013
▁besch	-2014
ites	-2015
▁che	-2016
▁Eng	-2017
▁unseren	-2018
▁verfü	-2019
besondere	-2020
▁comple	-2021
udget	-2022
▁sicher	-2023
▁situation	-2024
aupt	-2025
heiten	-2026
▁Gew	-2027
▁wollen	-2028
▁necess	-2029
halts	-2030
gress	-2031
▁technolog	-2032
▁gef	-2033
illion	-2034
spar	-2035
ether	-2036
spr	-2037
mar	-2038
▁With	-2039
▁Kommissar	-2040
führt	-2041
▁Politik	-2042
▁einge	-2043
antwort	-2044
▁pass	-2045
▁entsp	-2046
ilities	-2047
▁Res	-2048
▁based	-2049
▁child	-2050
▁common	-2051
ized	-2052
▁gar	-2053
▁each	-2054
▁contr	-2055
fts	-2056
▁amend	-2057
erk	-2058
ktionen	-2059
▁Gesch	-2060
▁power	-2061
▁Auss	-2062
blems	-2063
leist	-2064
angen	-2065
org	-2066
eschäft	-2067
▁würde	-2068
▁adop	-2069
▁compet	-2070
▁Ur	-2071
etzen	-2072
unter	-2073
ield	-2074
omat	-2075
▁colle	-2076
haf	-2077
ash	-2078
fass	-2079
aat	-2080
▁ref	-2081
▁citizens	-2082
▁stay	-2083
oren	-2084
▁Bild	-2085
▁found	-2086
ache	-2087
immung	-2088
▁Techn	-2089
ule	-2090
▁16	-2091
▁cult	-2092
▁Parlaments	-2093
▁Proje	-2094
aurant	-2095
▁Lös	-2096
▁Committee	-2097
▁etwas	-2098
▁stehen	-2099
reit	-2100
▁Tr	-2101
▁Qu	-2102
▁three	-2103
genommen	-2104
bed	-2105
tellen	-2106
▁während	-2107
▁Länder	-2108
▁br	-2109
▁sagen	-2110
ased	-2111
▁stud	-2112
come	-2113
gew	-2114
stru	-2115
▁fil	-2116
▁author	-2117
▁allow	-2118
▁Euro	-2119
ott	-2120
▁Deut	-2121
▁object	-2122
▁next	-2123
▁11	-2124
▁areas	-2125
▁organis	-2126
▁Vorschlag	-2127
▁Und	-2128
▁respect	-2129
cip	-2130
▁democ	-2131
▁14	-2132
▁25	-2133
▁employ	-2134
▁doch	-2135
▁build	-2136
ains	-2137
ablish	-2138
▁measures	-2139
iff	-2140
gangen	-2141
▁give	-2142
▁X	-2143
▁rece	-2144
▁star	-2145
vention	-2146
▁sozial	-2147
▁komm	-2148
orth	-2149
▁few	-2150
▁thank	-2151
▁pres	-2152
zept	-2153
▁Bl	-2154
▁Cl	-2155
▁System	-2156
▁histor	-2157
oten	-2158
amer	-2159
▁discuss	-2160
▁ensure	-2161
▁control	-2162
ands	-2163
▁energy	-2164
▁Rest	-2165
ugen	-2166
rache	-2167
▁Unterstütz	-2168
▁tun	-2169
uge	-2170
▁mus	-2171
▁Durch	-2172
▁further	-2173
ürlich	-2174
▁provide	-2175
▁result	-2176
▁wissen	-2177
▁erm	-2178
pre	-2179
▁Qual	-2180
▁dra	-2181
linie	-2182
zw	-2183
asch	-2184
ining	-2185
▁success	-2186
ught	-2187
▁insbesondere	-2188
▁taken	-2189
▁erst	-2190
▁Mill	-2191
▁erhalten	-2192
▁establish	-2193
ode	-2194
▁sk	-2195
▁addition	-2196
▁agreement	-2197
▁read	-2198
▁Zug	-2199
ination	-2200
schaften	-2201
joy	-2202
falls	-2203
unde	-2204
▁Kunden	-2205
▁second	-2206
gleich	-2207
▁pay	-2208
▁Mus	-2209
ald	-2210
▁bl	-2211
▁Verfü	-2212
▁Markt	-2213
pend	-2214
▁Problem	-2215
▁Spiel	-2216
ordnung	-2217
▁außer	-2218
▁det	-2219
indet	-2220
iate	-2221
▁einmal	-2222
▁La	-2223
anken	-2224
▁Ital	-2225
▁link	-2226
ller	-2227
▁grow	-2228
▁Fall	-2229
rop	-2230
▁add	-2231
agt	-2232
arn	-2233
▁inde	-2234
ziel	-2235
opp	-2236
▁law	-2237
stellung	-2238
▁waren	-2239
▁abs	-2240
▁position	-2241
▁verw	-2242
trä	-2243
▁du	-2244
igin	-2245
▁ho	-2246
▁Ser	-2247
▁kommen	-2248
▁17	-2249
▁vo	-2250
legt	-2251
ilfe	-2252
ases	-2253
itäten	-2254
▁beim	-2255
cken	-2256
▁come	-2257
gang	-2258
▁terr	-2259
▁pop	-2260
uff	-2261
ierungs	-2262
▁company	-2263
▁Schw	-2264
▁Stra	-2265
▁Unterstützung	-2266
▁opport	-2267
ules	-2268
▁China	-2269
igten	-2270
▁Zusammenarbeit	-2271
▁key	-2272
▁ersten	-2273
▁legisl	-2274
▁problems	-2275
▁shall	-2276
ements	-2277
▁necessary	-2278
▁schw	-2279
▁Group	-2280
▁did	-2281
ums	-2282
▁Mad	-2283
utzen	-2284
▁begr	-2285
▁lassen	-2286
ohn	-2287
▁ä	-2288
igkeiten	-2289
ek	-2290
▁Gl	-2291
▁security	-2292
▁groß	-2293
esser	-2294
ty	-2295
▁budget	-2296
▁Tag	-2297
▁princip	-2298
▁Port	-2299
▁Dienst	-2300
▁pract	-2301
▁drei	-2302
▁gra	-2303
ross	-2304
▁2010	-2305
▁inform	-2306
umen	-2307
uten	-2308
▁Umwelt	-2309
▁given	-2310
▁geben	-2311
▁health	-2312
unic	-2313
▁lead	-2314
▁ret	-2315
▁hope	-2316
▁Ländern	-2317
ises	-2318
▁Änderungsant	-2319
▁13	-2320
▁Recht	-2321
fang	-2322
▁wirk	-2323
▁why	-2324
bau	-2325
gre	-2326
ditions	-2327
▁invol	-2328
▁Proble	-2329
▁however	-2330
elf	-2331
▁life	-2332
▁char	-2333
▁Sw	-2334
▁global	-2335
▁start	-2336
orgen	-2337
glichen	-2338
▁2008	-2339
ogen	-2340
▁located	-2341
ury	-2342
▁imm	-2343
▁vote	-2344
▁verl	-2345
fung	-2346
▁Deb	-2347
iter	-2348
wards	-2349
esellschaft	-2350
burg	-2351
▁cooperation	-2352
örder	-2353
tschafts	-2354
bewer	-2355
▁besteht	-2356
iety	-2357
ively	-2358
▁Da	-2359
ared	-2360
isation	-2361
▁wish	-2362
ising	-2363
gether	-2364
▁Geschä	-2365
asse	-2366
öt	-2367
▁Ko	-2368
urz	-2369
▁tradition	-2370
▁entwick	-2371
▁protection	-2372
ichts	-2373
▁while	-2374
▁Namen	-2375
lossen	-2376
app	-2377
▁writ	-2378
fte	-2379
▁refer	-2380
▁Red	-2381
▁Sk	-2382
▁ir	-2383
▁Beit	-2384
▁complete	-2385
▁always	-2386
▁wirtschaft	-2387
▁implement	-2388
▁ander	-2389
fre	-2390
▁needs	-2391
schied	-2392
porte	-2393
▁Fragen	-2394
▁sehen	-2395
▁steht	-2396
▁Bel	-2397
▁They	-2398
▁sens	-2399
ches	-2400
führung	-2401
▁führen	-2402
▁Kr	-2403
▁Vol	-2404
▁Besch	-2405
▁Ob	-2406
ling	-2407
▁comb	-2408
▁seinen	-2409
ried	-2410
▁50	-2411
lect	-2412
▁Dar	-2413
▁term	-2414
licht	-2415
text	-2416
earch	-2417
▁House	-2418
▁statt	-2419
▁reach	-2420
▁tre	-2421
irm	-2422
▁akt	-2423
▁mult	-2424
wendung	-2425
▁Kar	-2426
EN	-2427
▁nor	-2428
zieh	-2429
▁better	-2430
▁schne	-2431
▁beh	-2432
▁War	-2433
▁account	-2434
ipp	-2435
altung	-2436
ique	-2437
▁diff	-2438
▁24	-2439
ave	-2440
▁Seite	-2441
▁defin	-2442
▁Service	-2443
▁net	-2444
ichterst	-2445
▁Not	-2446
häng	-2447
▁wäre	-2448
▁interest	-2449
stellen	-2450
▁dabei	-2451
▁exce	-2452
▁Ben	-2453
▁Lebens	-2454
▁Kollegen	-2455
▁action	-2456
ranspar	-2457
ustrie	-2458
äd	-2459
▁friend	-2460
ätze	-2461
zess	-2462
▁United	-2463
▁using	-2464
▁Rom	-2465
ettbewer	-2466
▁Energie	-2467
▁100	-2468
dress	-2469
▁Community	-2470
▁fav	-2471
▁gehör	-2472
▁Regierung	-2473
▁glaub	-2474
gaben	-2475
▁Vertrag	-2476
▁Was	-2477
ialog	-2478
reen	-2479
▁legal	-2480
▁men	-2481
▁cho	-2482
▁consum	-2483
ivil	-2484
schein	-2485
zü	-2486
▁met	-2487
▁conne	-2488
bereich	-2489
▁hö	-2490
▁What	-2491
uft	-2492
kon	-2493
iation	-2494
iste	-2495
▁sing	-2496
▁worden	-2497
▁muß	-2498
▁Famil	-2499
▁Gu	-2500
▁letzten	-2501
isher	-2502
ämp	-2503
▁unt	-2504
▁mov	-2505
▁around	-2506
▁enjoy	-2507
von	-2508
enten	-2509
▁Comp	-2510
▁Bedeut	-2511
▁sl	-2512
cher	-2513
▁Lin	-2514
▁Bus	-2515
rechte	-2516
▁ble	-2517
sequ	-2518
blick	-2519
▁Trans	-2520
▁transport	-2521
iod	-2522
▁Region	-2523
▁USA	-2524
▁working	-2525
obil	-2526
ustry	-2527
▁2007	-2528
ingungen	-2529
▁Verfügung	-2530
gehen	-2531
undheit	-2532
rän	-2533
▁Programm	-2534
▁großen	-2535
▁welche	-2536
ikan	-2537
bo	-2538
gabe	-2539
▁große	-2540
▁When	-2541
gestellt	-2542
▁production	-2543
▁Hier	-2544
iges	-2545
asser	-2546
▁word	-2547
▁bel	-2548
less	-2549
▁centre	-2550
▁current	-2551
▁crit	-2552
ölk	-2553
▁Regel	-2554
▁old	-2555
▁Entscheid	-2556
▁deren	-2557
▁short	-2558
▁non	-2559
▁Bedeutung	-2560
▁Ergeb	-2561
▁inner	-2562
▁state	-2563
genden	-2564
▁International	-2565
abil	-2566
markt	-2567
▁specific	-2568
▁terms	-2569
▁run	-2570
ervor	-2571
ify	-2572
▁Kinder	-2573
▁Mrs	-2574
▁1.	-2575
▁These	-2576
▁near	-2577
▁dist	-2578
ros	-2579
▁Gar	-2580
▁making	-2581
▁step	-2582
ged	-2583
▁whether	-2584
STAR	-2585
▁appe	-2586
▁Air	-2587
▁def	-2588
▁less	-2589
▁trade	-2590
▁particularly	-2591
uments	-2592
cially	-2593
▁together	-2594
racht	-2595
▁extre	-2596
▁become	-2597
▁Fraktion	-2598
▁Mal	-2599
▁Schutz	-2600
▁water	-2601
▁individual	-2602
▁lim	-2603
▁visit	-2604
kauf	-2605
▁Fol	-2606
AN	-2607
arch	-2608
▁Stud	-2609
▁difficult	-2610
lev	-2611
eder	-2612
▁exist	-2613
▁field	-2614
▁care	-2615
▁Tur	-2616
▁clos	-2617
▁rapporte	-2618
▁another	-2619
▁tour	-2620
▁Berichterst	-2621
▁Auch	-2622
▁Aber	-2623
offe	-2624
uter	-2625
▁German	-2626
ünst	-2627
hof	-2628
▁2000	-2629
üt	-2630
▁zahl	-2631
ferenz	-2632
immen	-2633
▁bene	-2634
▁ear	-2635
▁beach	-2636
▁research	-2637
▁Fahr	-2638
▁local	-2639
druck	-2640
▁Fun	-2641
eite	-2642
▁El	-2643
▁Staaten	-2644
▁Mark	-2645
bild	-2646
ell	-2647
▁Beispiel	-2648
▁break	-2649
▁km	-2650
anies	-2651
▁Zahl	-2652
▁contrib	-2653
▁whole	-2654
▁children	-2655
▁call	-2656
▁bieten	-2657
▁jeder	-2658
▁notwend	-2659
xim	-2660
▁No	-2661
▁Lie	-2662
▁book	-2663
▁him	-2664
▁issues	-2665
▁Thema	-2666
▁ann	-2667
▁show	-2668
▁San	-2669
tract	-2670
pecially	-2671
▁hervor	-2672
entrum	-2673
▁richt	-2674
▁entfern	-2675
by	-2676
ners	-2677
▁davon	-2678
▁New	-2679
▁öffent	-2680
ORE	-2681
▁bar	-2682
ished	-2683
alle	-2684
▁page	-2685
▁Gä	-2686
▁eben	-2687
▁EUR	-2688
▁aff	-2689
▁conditions	-2690
tellung	-2691
ots	-2692
▁reason	-2693
▁darüber	-2694
leit	-2695
arante	-2696
ckt	-2697
▁Strateg	-2698
IN	-2699
astr	-2700
▁daher	-2701
▁address	-2702
iar	-2703
▁col	-2704
atte	-2705
▁speak	-2706
▁erforder	-2707
bene	-2708
▁systems	-2709
▁alles	-2710
▁subject	-2711
load	-2712
▁stellen	-2713
▁Produkt	-2714
▁bew	-2715
▁Wirtschafts	-2716
▁sector	-2717
▁third	-2718
ategor	-2719
adies	-2720
▁organ	-2721
▁pack	-2722
▁site	-2723
▁Probleme	-2724
▁tax	-2725
▁Viel	-2726
ultur	-2727
▁brauch	-2728
▁Haushalts	-2729
ames	-2730
ipt	-2731
ording	-2732
▁Fort	-2733
▁gegenüber	-2734
▁eigenen	-2735
▁experience	-2736
▁Frauen	-2737
▁Weg	-2738
ails	-2739
ody	-2740
▁various	-2741
▁Chr	-2742
rieden	-2743
▁Software	-2744
ennt	-2745
ufen	-2746
kungen	-2747
▁top	-2748
▁industry	-2749
▁pat	-2750
▁Weise	-2751
▁sowohl	-2752
▁befindet	-2753
llent	-2754
▁Wahl	-2755
ikel	-2756
▁role	-2757
hö	-2758
iew	-2759
▁mar	-2760
ours	-2761
▁gesam	-2762
▁month	-2763
▁government	-2764
▁benef	-2765
bt	-2766
oms	-2767
▁origin	-2768
▁comfort	-2769
▁companies	-2770
▁weitere	-2771
▁guarante	-2772
▁profession	-2773
veral	-2774
▁Ihrer	-2775
▁women	-2776
ength	-2777
▁beaut	-2778
▁occ	-2779
▁basis	-2780
▁Seiten	-2781
schutz	-2782
▁näch	-2783
UND	-2784
ika	-2785
▁aim	-2786
isions	-2787
▁Haupt	-2788
isches	-2789
▁Ende	-2790
vest	-2791
▁typ	-2792
▁dort	-2793
▁really	-2794
▁Geschäfts	-2795
▁erreichen	-2796
rodu	-2797
fäh	-2798
cle	-2799
aster	-2800
▁natürlich	-2801
▁matter	-2802
▁meiner	-2803
▁especially	-2804
esehen	-2805
▁politischen	-2806
itiative	-2807
▁doc	-2808
▁perform	-2809
▁Deutsch	-2810
▁deal	-2811
wirtschaft	-2812
oney	-2813
▁Alle	-2814
hang	-2815
▁wirklich	-2816
▁gent	-2817
thing	-2818
▁distr	-2819
▁close	-2820
rift	-2821
▁besonders	-2822
▁arbeit	-2823
▁staff	-2824
▁tot	-2825
ton	-2826
▁hatte	-2827
▁called	-2828
▁könnte	-2829
▁Grup	-2830
▁commit	-2831
▁Park	-2832
▁Forsch	-2833
▁prior	-2834
▁nie	-2835
▁Komp	-2836
▁00	-2837
imate	-2838
▁UN	-2839
▁food	-2840
gemein	-2841
▁klar	-2842
▁innov	-2843
▁Ausschuss	-2844
▁di	-2845
chan	-2846
reaty	-2847
sen	-2848
▁Mehr	-2849
▁Zukunft	-2850
▁+	-2851
▁members	-2852
riften	-2853
▁effort	-2854
▁done	-2855
neten	-2856
ritte	-2857
▁Hotels	-2858
ived	-2859
ably	-2860
plan	-2861
▁unterstützen	-2862
▁verschiedenen	-2863
▁private	-2864
gende	-2865
▁entfernt	-2866
▁komp	-2867
▁Gegen	-2868
geord	-2869
▁period	-2870
▁ihnen	-2871
UNDER	-2872
▁line	-2873
part	-2874
▁location	-2875
▁proced	-2876
▁hoch	-2877
▁feat	-2878
▁Richtlinie	-2879
▁Tour	-2880
▁Zwe	-2881
ifiz	-2882
▁personal	-2883
ances	-2884
▁create	-2885
▁Situation	-2886
finden	-2887
▁Fest	-2888
▁teil	-2889
▁innerhalb	-2890
UNDERSC	-2891
ety	-2892
treten	-2893
ino	-2894
▁press	-2895
UNDERSCORE	-2896
▁turn	-2897
ünft	-2898
▁sum	-2899
▁lo	-2900
▁negot	-2901
ething	-2902
dings	-2903
zuf	-2904
prü	-2905
▁vielen	-2906
▁gener	-2907
▁enter	-2908
▁Abst	-2909
werk	-2910
▁Jan	-2911
▁ple	-2912
ima	-2913
ograph	-2914
▁Wettbewer	-2915
ides	-2916
▁Kom	-2917
▁Afr	-2918
▁langu	-2919
▁Terr	-2920
ival	-2921
▁2006	-2922
▁represent	-2923
row	-2924
▁betr	-2925
ober	-2926
ization	-2927
▁install	-2928
üd	-2929
icient	-2930
neh	-2931
amt	-2932
ican	-2933
▁prop	-2934
ichtet	-2935
▁mot	-2936
▁Rolle	-2937
duc	-2938
▁Germany	-2939
▁approach	-2940
ences	-2941
lands	-2942
▁event	-2943
▁single	-2944
scheiden	-2945
▁decision	-2946
▁poin	-2947
asing	-2948
▁list	-2949
▁bor	-2950
kung	-2951
▁home	-2952
▁soc	-2953
▁million	-2954
▁she	-2955
▁Wind	-2956
▁Off	-2957
ON	-2958
weisen	-2959
▁möchten	-2960
▁Sc	-2961
oment	-2962
▁Dire	-2963
▁internationalen	-2964
raum	-2965
▁something	-2966
▁zwar	-2967
ktor	-2968
▁among	-2969
▁job	-2970
▁reform	-2971
▁welt	-2972
20	-2973
▁Nutz	-2974
▁general	-2975
ension	-2976
▁Disk	-2977
▁town	-2978
▁Woch	-2979
▁struct	-2980
ults	-2981
▁rapporteur	-2982
zip	-2983
▁port	-2984
indung	-2985
▁itself	-2986
▁several	-2987
▁Ihren	-2988
▁Kü	-2989
▁direkt	-2990
fast	-2991
▁favour	-2992
▁bestimm	-2993
▁let	-2994
▁resolution	-2995
▁material	-2996
▁My	-2997
▁automat	-2998
olf	-2999
▁resour	-3000
uellen	-3001
eign	-3002
▁Verbrauch	-3003
iol	-3004
▁Met	-3005
ühr	-3006
▁enc	-3007
ittle	-3008
▁programme	-3009
tember	-3010
▁aufge	-3011
ände	-3012
▁dür	-3013
ift	-3014
▁Nor	-3015
▁continue	-3016
ai	-3017
ordin	-3018
ians	-3019
onds	-3020
▁text	-3021
mos	-3022
uth	-3023
▁going	-3024
▁hinaus	-3025
▁Can	-3026
▁excellent	-3027
▁Univers	-3028
ple	-3029
▁class	-3030
atch	-3031
▁gentlemen	-3032
▁management	-3033
pla	-3034
▁Technolog	-3035
▁accept	-3036
▁Berlin	-3037
▁198	-3038
▁away	-3039
mework	-3040
aps	-3041
▁introdu	-3042
▁name	-3043
▁plan	-3044
oor	-3045
▁ve	-3046
wär	-3047
isis	-3048
▁family	-3049
▁Rück	-3050
▁doub	-3051
▁tro	-3052
cel	-3053
▁least	-3054
ification	-3055
▁etc	-3056
▁often	-3057
▁serious	-3058
▁progress	-3059
▁Komm	-3060
▁peace	-3061
▁Uhr	-3062
hens	-3063
ype	-3064
iations	-3065
▁kind	-3066
▁erste	-3067
▁contact	-3068
▁opin	-3069
▁Em	-3070
▁range	-3071
▁following	-3072
▁Artikel	-3073
▁europäische	-3074
▁relations	-3075
▁understand	-3076
▁Fil	-3077
▁Gra	-3078
rael	-3079
▁Partner	-3080
ifen	-3081
▁bal	-3082
▁ans	-3083
▁konn	-3084
▁directive	-3085
nehmer	-3086
auer	-3087
wä	-3088
▁offen	-3089
▁particip	-3090
▁sett	-3091
▁Frank	-3092
▁Pe	-3093
redit	-3094
▁regul	-3095
gricult	-3096
erien	-3097
iere	-3098
▁software	-3099
▁rules	-3100
▁anal	-3101
ativen	-3102
▁mach	-3103
atives	-3104
räge	-3105
▁World	-3106
oto	-3107
▁apart	-3108
▁online	-3109
▁Entwicklungs	-3110
eiten	-3111
of	-3112
▁crisis	-3113
lock	-3114
▁price	-3115
▁money	-3116
▁feel	-3117
▁fast	-3118
fehl	-3119
▁forward	-3120
▁Meinung	-3121
▁Gesundheit	-3122
▁welcome	-3123
▁concl	-3124
fect	-3125
ksam	-3126
▁towards	-3127
▁mention	-3128
▁once	-3129
▁post	-3130
▁Natur	-3131
though	-3132
iken	-3133
▁Do	-3134
▁express	-3135
▁Car	-3136
ec	-3137
▁extrem	-3138
▁einzel	-3139
▁stark	-3140
▁Nov	-3141
weg	-3142
icle	-3143
▁ant	-3144
stück	-3145
▁absol	-3146
reg	-3147
ully	-3148
▁little	-3149
icial	-3150
ierungen	-3151
sk	-3152
▁dest	-3153
▁Fisch	-3154
▁National	-3155
▁mind	-3156
▁Gäste	-3157
▁21	-3158
leistungen	-3159
▁Invest	-3160
▁Span	-3161
▁ident	-3162
▁recog	-3163
▁Projekt	-3164
▁Gleich	-3165
▁optim	-3166
▁things	-3167
▁walk	-3168
▁situ	-3169
▁Hilfe	-3170
produ	-3171
▁communic	-3172
▁zus	-3173
▁until	-3174
▁unserem	-3175
zogen	-3176
▁Zusammenhang	-3177
yl	-3178
▁Cent	-3179
voll	-3180
pekt	-3181
▁milit	-3182
▁Madam	-3183
ifft	-3184
roll	-3185
▁customers	-3186
▁hät	-3187
met	-3188
▁Abgeord	-3189
▁days	-3190
▁institutions	-3191
ference	-3192
▁schnell	-3193
weis	-3194
etzung	-3195
wach	-3196
▁TV	-3197
ony	-3198
▁Sep	-3199
▁beiden	-3200
▁Personen	-3201
airs	-3202
unds	-3203
▁kommt	-3204
ußen	-3205
▁Lösung	-3206
itäts	-3207
haus	-3208
teilung	-3209
▁keep	-3210
asst	-3211
▁Jul	-3212
▁strong	-3213
esten	-3214
istic	-3215
wand	-3216
▁Rep	-3217
anges	-3218
ennen	-3219
▁aid	-3220
▁Organis	-3221
inter	-3222
gän	-3223
▁Sup	-3224
thers	-3225
▁Schluss	-3226
zimmer	-3227
▁known	-3228
▁Entschließ	-3229
▁ess	-3230
▁Bas	-3231
enzen	-3232
▁23	-3233
▁il	-3234
bei	-3235
▁ren	-3236
▁Treaty	-3237
▁Bank	-3238
▁function	-3239
ured	-3240
▁entsprechen	-3241
▁finanz	-3242
▁Pat	-3243
läge	-3244
▁Kultur	-3245
▁Dieses	-3246
▁2.	-3247
▁check	-3248
▁hard	-3249
▁agree	-3250
mat	-3251
▁Ums	-3252
ieten	-3253
ume	-3254
▁opportunity	-3255
▁Produkte	-3256
▁elect	-3257
ächst	-3258
▁Mo	-3259
▁dev	-3260
▁increase	-3261
platz	-3262
▁Verantwort	-3263
▁Weit	-3264
iesen	-3265
ommend	-3266
▁®	-3267
▁40	-3268
▁bestehen	-3269
▁sw	-3270
▁Char	-3271
idence	-3272
ison	-3273
idency	-3274
▁bzw	-3275
▁2005	-3276
▁quite	-3277
▁activities	-3278
▁Members	-3279
▁big	-3280
▁ja	-3281
leicht	-3282
▁weltweit	-3283
outh	-3284
usion	-3285
50	-3286
▁stellt	-3287
▁rather	-3288
vent	-3289
rech	-3290
▁Präsidentin	-3291
ocus	-3292
▁positive	-3293
aden	-3294
▁begrü	-3295
fassung	-3296
ission	-3297
▁Ass	-3298
bet	-3299
▁tas	-3300
▁value	-3301
▁ideal	-3302
▁Demokrat	-3303
▁Preis	-3304
▁try	-3305
▁qual	-3306
äuf	-3307
▁bringen	-3308
▁Minister	-3309
ließen	-3310
vorsch	-3311
▁provided	-3312
▁Per	-3313
mäß	-3314
▁partners	-3315
▁Leben	-3316
weil	-3317
▁mean	-3318
eu	-3319
prochen	-3320
baren	-3321
▁sug	-3322
▁seem	-3323
▁land	-3324
▁etwa	-3325
ency	-3326
▁treat	-3327
annten	-3328
▁fully	-3329
▁Deshalb	-3330
▁resources	-3331
▁four	-3332
▁gilt	-3333
▁führ	-3334
▁bitte	-3335
▁daran	-3336
▁stär	-3337
▁Christ	-3338
mosph	-3339
reiche	-3340
ports	-3341
stra	-3342
▁growth	-3343
▁weniger	-3344
▁mag	-3345
▁might	-3346
forderungen	-3347
▁park	-3348
uh	-3349
▁jeden	-3350
ideo	-3351
ären	-3352
▁gewähr	-3353
▁gute	-3354
▁lab	-3355
eits	-3356
▁Ort	-3357
▁Emp	-3358
hnt	-3359
ales	-3360
rolle	-3361
▁spiel	-3362
▁gesagt	-3363
▁technology	-3364
iful	-3365
yr	-3366
▁indem	-3367
ücksicht	-3368
präsident	-3369
ählen	-3370
▁After	-3371
▁State	-3372
▁Erfahr	-3373
▁persön	-3374
ona	-3375
▁yet	-3376
stadt	-3377
ämlich	-3378
▁September	-3379
▁log	-3380
legenheit	-3381
▁include	-3382
zeitig	-3383
▁Text	-3384
▁Kosten	-3385
kre	-3386
▁Date	-3387
▁Austr	-3388
▁Sozial	-3389
▁left	-3390
▁Aussp	-3391
letz	-3392
alität	-3393
▁ladies	-3394
▁signific	-3395
▁tem	-3396
▁umf	-3397
frage	-3398
▁admin	-3399
abhäng	-3400
▁nämlich	-3401
fert	-3402
han	-3403
▁2004	-3404
▁genau	-3405
side	-3406
▁educ	-3407
ühren	-3408
▁content	-3409
einander	-3410
na	-3411
▁Web	-3412
▁Priv	-3413
▁kosten	-3414
ception	-3415
onger	-3416
▁light	-3417
▁having	-3418
amental	-3419
▁entscheiden	-3420
▁app	-3421
▁proposals	-3422
▁pur	-3423
wohl	-3424
IC	-3425
igungs	-3426
▁amendments	-3427
▁arch	-3428
▁sogar	-3429
ager	-3430
wendet	-3431
▁kurz	-3432
▁along	-3433
▁Millionen	-3434
ops	-3435
telle	-3436
▁recht	-3437
▁One	-3438
▁Geld	-3439
▁Rates	-3440
liches	-3441
▁solution	-3442
▁minutes	-3443
bon	-3444
▁times	-3445
▁erfolg	-3446
▁Jahres	-3447
ingen	-3448
▁gerade	-3449
▁easy	-3450
▁bekannt	-3451
▁nehmen	-3452
▁week	-3453
▁Punkt	-3454
apan	-3455
▁taking	-3456
▁safety	-3457
▁Europas	-3458
▁Zugang	-3459
▁Grün	-3460
▁Tod	-3461
roffen	-3462
hunder	-3463
anst	-3464
iten	-3465
▁framework	-3466
▁erwar	-3467
ratic	-3468
illa	-3469
fully	-3470
▁recommend	-3471
ächlich	-3472
▁remain	-3473
ij	-3474
orm	-3475
völk	-3476
▁bit	-3477
▁pa	-3478
tragen	-3479
▁building	-3480
armon	-3481
▁Dank	-3482
▁flo	-3483
▁led	-3484
ca	-3485
setzung	-3486
erecht	-3487
komm	-3488
▁costs	-3489
▁above	-3490
▁Institution	-3491
▁Kap	-3492
▁creat	-3493
cript	-3494
▁ebenfalls	-3495
▁Tür	-3496
▁tool	-3497
self	-3498
ha	-3499
ined	-3500
▁Unsere	-3501
▁Sta	-3502
▁essential	-3503
lei	-3504
▁Israel	-3505
▁bath	-3506
▁Sa	-3507
▁ihn	-3508
▁adopted	-3509
stant	-3510
▁unterschied	-3511
racy	-3512
▁Dieser	-3513
▁Website	-3514
half	-3515
▁strength	-3516
▁excl	-3517
▁Deutschland	-3518
▁transpar	-3519
▁ü	-3520
▁Wirtschaft	-3521
verb	-3522
▁meisten	-3523
▁makes	-3524
▁viol	-3525
▁gemacht	-3526
wahl	-3527
▁Angeb	-3528
ativ	-3529
ledge	-3530
▁standard	-3531
▁Janu	-3532
▁Leist	-3533
▁Buch	-3534
▁website	-3535
▁Ange	-3536
▁Ebene	-3537
chs	-3538
alten	-3539
▁flex	-3540
▁freed	-3541
▁Verhandl	-3542
▁politische	-3543
▁Cont	-3544
▁besser	-3545
▁entire	-3546
▁ihm	-3547
ethod	-3548
▁seinem	-3549
▁Ins	-3550
▁darf	-3551
ruktur	-3552
▁opinion	-3553
▁stre	-3554
▁economy	-3555
inge	-3556
oph	-3557
▁verbunden	-3558
▁focus	-3559
iberal	-3560
▁charac	-3561
▁Aussprache	-3562
▁agricult	-3563
atten	-3564
recht	-3565
▁gehen	-3566
▁ak	-3567
▁behalf	-3568
▁Bezug	-3569
za	-3570
ctive	-3571
▁Restaurant	-3572
▁Tats	-3573
rimin	-3574
aurants	-3575
▁Den	-3576
▁application	-3577
▁legislation	-3578
▁Plan	-3579
▁unterstützt	-3580
ES	-3581
▁never	-3582
▁verst	-3583
▁Prof	-3584
iben	-3585
▁dessen	-3586
ysteme	-3587
iers	-3588
▁EC	-3589
▁others	-3590
▁Co	-3591
▁Zust	-3592
▁wesent	-3593
nete	-3594
▁provides	-3595
▁return	-3596
▁2003	-3597
▁Flug	-3598
unst	-3599
▁Qualität	-3600
go	-3601
igital	-3602
bare	-3603
▁instr	-3604
achten	-3605
▁results	-3606
▁22	-3607
here	-3608
▁Instr	-3609
▁projects	-3610
▁deliver	-3611
▁fair	-3612
ested	-3613
▁points	-3614
▁Design	-3615
▁effective	-3616
▁nah	-3617
▁sure	-3618
▁Antw	-3619
▁anges	-3620
reicht	-3621
▁house	-3622
▁Op	-3623
▁Wasser	-3624
▁Sub	-3625
fs	-3626
▁Sel	-3627
ostel	-3628
▁programm	-3629
most	-3630
▁bank	-3631
OM	-3632
ana	-3633
▁Rechte	-3634
erst	-3635
appen	-3636
atis	-3637
▁due	-3638
iled	-3639
▁wahr	-3640
▁Sol	-3641
▁heart	-3642
▁beginn	-3643
▁Rats	-3644
▁attention	-3645
▁cover	-3646
igr	-3647
▁Ide	-3648
ünf	-3649
▁team	-3650
uz	-3651
ishing	-3652
word	-3653
▁darin	-3654
lung	-3655
▁beautiful	-3656
▁pot	-3657
iting	-3658
▁Nicht	-3659
▁Verkehr	-3660
▁concerned	-3661
▁risk	-3662
aussch	-3663
▁responsibility	-3664
▁Früh	-3665
▁glaube	-3666
▁sty	-3667
▁perfect	-3668
▁Fir	-3669
▁Frei	-3670
sweise	-3671
tag	-3672
aged	-3673
▁head	-3674
benso	-3675
gebung	-3676
▁past	-3677
▁Rei	-3678
▁Gemeinschaft	-3679
pflicht	-3680
▁dürfen	-3681
▁Just	-3682
ül	-3683
▁rela	-3684
▁Pra	-3685
ufact	-3686
▁Mär	-3687
▁simply	-3688
▁Meer	-3689
▁Hö	-3690
arian	-3691
▁derzeit	-3692
▁dom	-3693
mitted	-3694
▁questions	-3695
▁appropr	-3696
▁nichts	-3697
▁öffentlichen	-3698
▁II	-3699
▁einigen	-3700
▁Nä	-3701
▁mass	-3702
▁Sal	-3703
▁Verw	-3704
hing	-3705
▁groups	-3706
reiben	-3707
▁Ag	-3708
▁moder	-3709
itionen	-3710
▁policies	-3711
▁importance	-3712
▁Tre	-3713
ators	-3714
▁Benutz	-3715
▁young	-3716
▁schaffen	-3717
ients	-3718
ric	-3719
▁Abstimmung	-3720
afen	-3721
▁road	-3722
schluss	-3723
▁brauchen	-3724
▁Cas	-3725
▁context	-3726
bour	-3727
▁sea	-3728
▁sollen	-3729
oting	-3730
▁industr	-3731
▁version	-3732
IT	-3733
kar	-3734
▁Far	-3735
▁Dr	-3736
▁continu	-3737
▁Beschäft	-3738
▁holid	-3739
▁society	-3740
▁environmental	-3741
berg	-3742
▁table	-3743
▁Dok	-3744
▁keinen	-3745
▁Sitz	-3746
▁ihrem	-3747
▁Verbraucher	-3748
iner	-3749
▁total	-3750
arbeiten	-3751
▁nationalen	-3752
amb	-3753
▁natural	-3754
▁Groß	-3755
▁reserv	-3756
zentr	-3757
▁Kolleg	-3758
▁handelt	-3759
wür	-3760
▁user	-3761
▁greater	-3762
ustain	-3763
IS	-3764
▁Jahrhunder	-3765
gesehen	-3766
▁rad	-3767
▁zusätz	-3768
schließlich	-3769
▁strategy	-3770
zustellen	-3771
▁method	-3772
▁arr	-3773
▁2001	-3774
wärt	-3775
unkte	-3776
▁Son	-3777
utzt	-3778
ender	-3779
▁standards	-3780
▁infl	-3781
▁Gesetz	-3782
▁send	-3783
ada	-3784
▁talk	-3785
▁Prot	-3786
▁verbess	-3787
▁ed	-3788
▁000	-3789
äus	-3790
verkehr	-3791
▁increasing	-3792
▁verste	-3793
unächst	-3794
▁abge	-3795
▁principle	-3796
▁Akt	-3797
▁Mod	-3798
▁expl	-3799
uell	-3800
▁betrifft	-3801
▁weiterhin	-3802
ziehen	-3803
▁Zus	-3804
ampf	-3805
uelle	-3806
leben	-3807
▁manufact	-3808
▁sour	-3809
eutet	-3810
▁institution	-3811
▁required	-3812
istan	-3813
▁words	-3814
▁Strategie	-3815
▁views	-3816
ported	-3817
▁learn	-3818
hib	-3819
unehmen	-3820
äter	-3821
now	-3822
▁Sl	-3823
▁Fortsch	-3824
rup	-3825
▁cir	-3826
▁Apr	-3827
▁Bem	-3828
▁music	-3829
▁central	-3830
iqu	-3831
▁challen	-3832
▁Windows	-3833
ette	-3834
▁breakfast	-3835
▁training	-3836
▁ur	-3837
▁Wohn	-3838
▁heraus	-3839
▁Raum	-3840
▁benöt	-3841
▁Bro	-3842
bereit	-3843
astru	-3844
▁IT	-3845
▁deter	-3846
▁night	-3847
isiert	-3848
▁kom	-3849
▁moment	-3850
rieg	-3851
▁wenig	-3852
▁don	-3853
zeichnet	-3854
▁regional	-3855
▁May	-3856
▁wide	-3857
▁quick	-3858
▁clean	-3859
▁Mitarbeit	-3860
▁side	-3861
▁€	-3862
▁bedeutet	-3863
▁Gesellschaft	-3864
▁deshalb	-3865
▁Besuch	-3866
▁significant	-3867
▁macht	-3868
▁meeting	-3869
▁network	-3870
▁relax	-3871
▁Pos	-3872
unities	-3873
frastru	-3874
▁besten	-3875
▁clearly	-3876
▁erklär	-3877
.0	-3878
▁Kunst	-3879
▁Betrie	-3880
▁unver	-3881
▁u	-3882
acy	-3883
▁fa	-3884
▁deutlich	-3885
▁lea	-3886
▁Wach	-3887
onen	-3888
▁extra	-3889
▁works	-3890
▁lar	-3891
▁via	-3892
useum	-3893
▁sei	-3894
▁Govern	-3895
▁parl	-3896
▁solche	-3897
AS	-3898
▁technical	-3899
ban	-3900
▁interess	-3901
▁authorities	-3902
ellen	-3903
ided	-3904
▁century	-3905
igent	-3906
▁demand	-3907
AD	-3908
▁Ju	-3909
rach	-3910
stoff	-3911
▁November	-3912
▁pages	-3913
cen	-3914
läss	-3915
haltung	-3916
anze	-3917
▁Will	-3918
▁Bezieh	-3919
▁vol	-3920
ims	-3921
▁Klima	-3922
▁share	-3923
änger	-3924
ringen	-3925
atal	-3926
mals	-3927
▁Stat	-3928
▁distrib	-3929
▁Industrie	-3930
ulture	-3931
▁cultural	-3932
ning	-3933
▁capital	-3934
züglich	-3935
▁cla	-3936
▁achieve	-3937
▁mat	-3938
▁prec	-3939
▁aspect	-3940
ape	-3941
▁oft	-3942
äsent	-3943
▁wichtige	-3944
▁Schul	-3945
▁Such	-3946
▁though	-3947
genda	-3948
▁recent	-3949
▁terror	-3950
▁according	-3951
▁Von	-3952
▁aufgrund	-3953
▁197	-3954
▁beispiel	-3955
▁2002	-3956
▁Bü	-3957
▁nature	-3958
erous	-3959
▁test	-3960
▁First	-3961
▁facilities	-3962
▁findet	-3963
▁würden	-3964
▁directly	-3965
▁internal	-3966
▁solutions	-3967
▁Netz	-3968
fall	-3969
▁General	-3970
ritten	-3971
aging	-3972
room	-3973
▁Fern	-3974
▁subs	-3975
gesetzt	-3976
▁Menschenrechte	-3977
▁web	-3978
▁Mail	-3979
▁verein	-3980
gelegt	-3981
▁Ansicht	-3982
▁months	-3983
▁Richtung	-3984
▁obl	-3985
▁Bevölk	-3986
▁Japan	-3987
ser	-3988
▁longer	-3989
▁Ha	-3990
▁Demokratie	-3991
▁fundamental	-3992
▁April	-3993
ffe	-3994
tt	-3995
hörden	-3996
▁employment	-3997
bung	-3998
▁responsible	-3999
▁enough	-4000
▁guests	-4001
▁nächsten	-4002
▁proposed	-4003
▁versch	-4004
▁Prozess	-4005
▁ern	-4006
wohn	-4007
▁Förder	-4008
▁currently	-4009
▁Brit	-4010
▁Nähe	-4011
▁gewährle	-4012
▁history	-4013
▁Umsetzung	-4014
elves	-4015
▁vorgesch	-4016
jen	-4017
▁Musik	-4018
▁mount	-4019
▁nutzen	-4020
▁requirements	-4021
▁Fehl	-4022
▁erne	-4023
unch	-4024
▁sele	-4025
▁Ir	-4026
gency	-4027
▁Herren	-4028
▁maintain	-4029
▁Wert	-4030
ones	-4031
ube	-4032
▁Nord	-4033
▁events	-4034
kämp	-4035
ither	-4036
▁‘	-4037
▁lange	-4038
▁language	-4039
▁Opt	-4040
▁Pf	-4041
▁Please	-4042
▁live	-4043
▁needed	-4044
▁interests	-4045
vo	-4046
▁sy	-4047
▁Druck	-4048
▁assist	-4049
▁Struktur	-4050
▁AG	-4051
▁anim	-4052
▁vier	-4053
ief	-4054
▁character	-4055
▁Verfahren	-4056
▁prevent	-4057
▁Gebiet	-4058
▁regions	-4059
umente	-4060
ker	-4061
▁allerdings	-4062
ables	-4063
▁civil	-4064
▁60	-4065
▁disk	-4066
▁sustain	-4067
▁From	-4068
▁Selbst	-4069
▁apply	-4070
▁Bau	-4071
▁Stre	-4072
▁betre	-4073
▁Tro	-4074
▁illeg	-4075
▁involved	-4076
verständ	-4077
▁developed	-4078
ari	-4079
ench	-4080
▁Tele	-4081
▁Kons	-4082
▁Ira	-4083
▁Verantwortung	-4084
change	-4085
▁thems	-4086
▁Ziele	-4087
▁Jun	-4088
▁hoffe	-4089
▁Anwendung	-4090
▁See	-4091
▁themselves	-4092
▁station	-4093
▁Bil	-4094
▁zie	-4095
▁Außen	-4096
▁extremely	-4097
▁parties	-4098
drück	-4099
▁please	-4100
▁bil	-4101
frist	-4102
▁recogn	-4103
▁voted	-4104
▁Bedingungen	-4105
ding	-4106
entw	-4107
esented	-4108
▁fight	-4109
teile	-4110
istischen	-4111
▁competition	-4112
stehen	-4113
▁camp	-4114
ließlich	-4115
▁Version	-4116
▁happen	-4117
lauf	-4118
▁related	-4119
mbH	-4120
▁democracy	-4121
▁regulation	-4122
llig	-4123
ean	-4124
▁DE	-4125
▁beispielsweise	-4126
▁Eur	-4127
▁request	-4128
▁pool	-4129
▁Tages	-4130
▁implementation	-4131
folgt	-4132
äche	-4133
▁gegeben	-4134
▁jeweil	-4135
▁Prin	-4136
▁prep	-4137
aper	-4138
▁force	-4139
▁dank	-4140
▁gemeinsamen	-4141
▁kont	-4142
▁notwendig	-4143
▁foreign	-4144
▁Vorschläge	-4145
▁guarantee	-4146
irt	-4147
wirkungen	-4148
▁freedom	-4149
▁GmbH	-4150
▁Erweit	-4151
▁upon	-4152
▁wind	-4153
▁item	-4154
▁Soc	-4155
▁ö	-4156
▁Su	-4157
▁Paris	-4158
▁contain	-4159
▁nu	-4160
▁Dam	-4161
▁gehört	-4162
▁charge	-4163
▁Krit	-4164
▁Sicherheits	-4165
.00	-4166
▁fam	-4167
▁date	-4168
heim	-4169
▁Wel	-4170
▁Aug	-4171
AL	-4172
▁Team	-4173
▁efforts	-4174
▁Parte	-4175
ommod	-4176
▁kleinen	-4177
▁Interesse	-4178
▁Erfolg	-4179
grup	-4180
▁Einz	-4181
AP	-4182
ri	-4183
▁Russia	-4184
▁Wachst	-4185
richtung	-4186
▁ago	-4187
▁Einsatz	-4188
üssel	-4189
▁farm	-4190
▁wohl	-4191
▁changes	-4192
gliche	-4193
ürz	-4194
▁Ihrem	-4195
▁separ	-4196
▁Grundlage	-4197
▁Aktiv	-4198
cke	-4199
▁Reihe	-4200
▁verwendet	-4201
ired	-4202
▁vielleicht	-4203
▁bedeut	-4204
▁27	-4205
▁Inst	-4206
▁neu	-4207
obile	-4208
linien	-4209
▁Book	-4210
ienen	-4211
cies	-4212
▁safe	-4213
▁Wieder	-4214
▁demokrat	-4215
ublik	-4216
▁comfortable	-4217
peten	-4218
▁expect	-4219
haft	-4220
▁enthalten	-4221
lling	-4222
▁low	-4223
▁corre	-4224
▁By	-4225
▁Du	-4226
▁Cor	-4227
igur	-4228
▁erziel	-4229
▁restaurant	-4230
▁Wort	-4231
▁friendly	-4232
▁caus	-4233
usive	-4234
▁Arch	-4235
▁sprechen	-4236
▁Kön	-4237
▁ermöglich	-4238
▁maxim	-4239
lied	-4240
▁bevor	-4241
ynam	-4242
▁Geschichte	-4243
▁lot	-4244
▁oppos	-4245
▁zust	-4246
▁Daher	-4247
ips	-4248
▁sozialen	-4249
▁Hoch	-4250
▁situated	-4251
▁Außer	-4252
urf	-4253
▁soon	-4254
▁mess	-4255
▁Frieden	-4256
▁Möglichkeiten	-4257
vert	-4258
▁protect	-4259
▁South	-4260
atory	-4261
▁targe	-4262
▁nam	-4263
grif	-4264
▁erreicht	-4265
istration	-4266
▁previous	-4267
hem	-4268
▁either	-4269
bank	-4270
▁werde	-4271
▁comes	-4272
▁cut	-4273
ragen	-4274
teilt	-4275
nehm	-4276
▁Cour	-4277
has	-4278
▁cases	-4279
▁Ant	-4280
▁Steuer	-4281
▁Platz	-4282
dam	-4283
▁More	-4284
▁Schwe	-4285
onstr	-4286
▁ww	-4287
▁France	-4288
sichtlich	-4289
▁minim	-4290
▁negotiations	-4291
▁berücksicht	-4292
▁publ	-4293
▁Dis	-4294
würd	-4295
▁halten	-4296
▁Sport	-4297
andid	-4298
arf	-4299
▁Sec	-4300
tended	-4301
▁Heraus	-4302
▁Blick	-4303
▁www	-4304
▁Debatte	-4305
schn	-4306
crib	-4307
immungen	-4308
▁201	-4309
▁Erklär	-4310
ano	-4311
▁everything	-4312
▁einges	-4313
ipped	-4314
▁pict	-4315
▁Mont	-4316
▁erfü	-4317
urt	-4318
bel	-4319
▁Integr	-4320
merksam	-4321
▁übern	-4322
▁ausgest	-4323
▁Öff	-4324
▁file	-4325
▁final	-4326
teilen	-4327
▁Institutionen	-4328
▁Kle	-4329
▁Damen	-4330
ätzen	-4331
▁CD	-4332
EC	-4333
▁surround	-4334
hend	-4335
AC	-4336
▁created	-4337
▁amb	-4338
▁unique	-4339
▁indic	-4340
rank	-4341
ense	-4342
▁West	-4343
▁type	-4344
▁Apart	-4345
▁Wissen	-4346
▁markets	-4347
hes	-4348
▁true	-4349
geln	-4350
gern	-4351
zeigt	-4352
▁developing	-4353
▁Webs	-4354
▁democratic	-4355
ichen	-4356
▁Funktion	-4357
▁circ	-4358
estern	-4359
ane	-4360
▁mer	-4361
▁arbeiten	-4362
istet	-4363
attet	-4364
▁höch	-4365
▁accommod	-4366
.1	-4367
aring	-4368
orge	-4369
aler	-4370
▁1999	-4371
▁verschiedene	-4372
tion	-4373
▁states	-4374
▁Rechn	-4375
auen	-4376
▁French	-4377
▁exam	-4378
▁Entscheidung	-4379
▁living	-4380
▁Presidency	-4381
▁later	-4382
ingt	-4383
▁improve	-4384
inner	-4385
▁vorgeschlagen	-4386
rieben	-4387
▁education	-4388
▁Rad	-4389
▁altern	-4390
▁looking	-4391
key	-4392
▁American	-4393
abel	-4394
▁Kir	-4395
arbeitung	-4396
▁Minuten	-4397
▁fünf	-4398
.2	-4399
▁Unser	-4400
▁stor	-4401
deut	-4402
▁prices	-4403
iable	-4404
TO	-4405
best	-4406
▁Kraft	-4407
ka	-4408
▁additional	-4409
▁mail	-4410
▁rate	-4411
▁Mitglieder	-4412
▁monitor	-4413
▁schwier	-4414
▁almost	-4415
▁immed	-4416
ama	-4417
trie	-4418
30	-4419
▁Lis	-4420
▁verfügt	-4421
▁included	-4422
▁Adr	-4423
▁travel	-4424
▁contract	-4425
▁könnten	-4426
▁Frühstück	-4427
unik	-4428
▁famous	-4429
▁fort	-4430
▁gemeinsame	-4431
▁Pak	-4432
▁climate	-4433
▁analys	-4434
erseits	-4435
▁actually	-4436
▁document	-4437
ipment	-4438
▁Diskuss	-4439
▁Hinblick	-4440
▁ermöglicht	-4441
anten	-4442
▁program	-4443
mut	-4444
▁schrift	-4445
cent	-4446
▁Süd	-4447
▁bleiben	-4448
eless	-4449
haps	-4450
ulate	-4451
▁Änderungsantrag	-4452
ibr	-4453
pression	-4454
▁Hers	-4455
▁thus	-4456
kra	-4457
▁designed	-4458
▁idea	-4459
▁join	-4460
bl	-4461
▁Aff	-4462
▁Nie	-4463
dle	-4464
▁receive	-4465
▁Abkommen	-4466
igte	-4467
▁seen	-4468
▁ca	-4469
ißt	-4470
prise	-4471
pendent	-4472
▁knowledge	-4473
▁Fo	-4474
▁196	-4475
bahn	-4476
ester	-4477
▁held	-4478
▁Mot	-4479
ental	-4480
▁akzept	-4481
▁Auswirkungen	-4482
▁zeigt	-4483
▁vollständ	-4484
▁hold	-4485
spruch	-4486
▁school	-4487
laden	-4488
play	-4489
▁tats	-4490
▁encour	-4491
▁vill	-4492
▁five	-4493
to	-4494
▁enl	-4495
wegen	-4496
▁dialog	-4497
▁appropriate	-4498
▁Vertre	-4499
put	-4500
▁official	-4501
▁hatten	-4502
ielle	-4503
techn	-4504
roso	-4505
▁bisher	-4506
▁lack	-4507
ikt	-4508
vin	-4509
▁Office	-4510
▁Beg	-4511
▁PC	-4512
rachten	-4513
▁erforderlich	-4514
barkeit	-4515
▁ce	-4516
▁Regionen	-4517
▁Acc	-4518
▁funds	-4519
usst	-4520
▁führt	-4521
▁Programme	-4522
ires	-4523
▁happ	-4524
▁Ausdruck	-4525
jenigen	-4526
▁outside	-4527
▁assoc	-4528
▁normal	-4529
▁Verhandlungen	-4530
ios	-4531
lack	-4532
▁Tatsache	-4533
fel	-4534
ilar	-4535
val	-4536
hinder	-4537
ogra	-4538
▁que	-4539
▁Ergebnis	-4540
▁procedure	-4541
▁Che	-4542
auber	-4543
ählt	-4544
▁Lond	-4545
▁euro	-4546
rechts	-4547
▁Portug	-4548
SE	-4549
▁Dec	-4550
▁thing	-4551
▁professional	-4552
▁Familien	-4553
▁Schritt	-4554
▁download	-4555
setzen	-4556
▁gesamten	-4557
adurch	-4558
bildung	-4559
▁schein	-4560
▁erwä	-4561
▁allgemein	-4562
▁angeb	-4563
ungsver	-4564
▁hon	-4565
▁Werk	-4566
▁Inform	-4567
▁stop	-4568
▁funktion	-4569
▁relev	-4570
cer	-4571
▁Bre	-4572
gu	-4573
▁Landes	-4574
folgen	-4575
▁Handels	-4576
▁features	-4577
▁danken	-4578
▁Mil	-4579
▁Erst	-4580
gegen	-4581
ießen	-4582
▁einzelnen	-4583
▁Doch	-4584
iellen	-4585
▁links	-4586
▁workers	-4587
▁suggest	-4588
▁Kolleginnen	-4589
struction	-4590
▁Zur	-4591
▁Zentrum	-4592
atisf	-4593
▁Binnen	-4594
▁ebenso	-4595
▁cop	-4596
▁majority	-4597
▁darum	-4598
feld	-4599
▁Liste	-4600
iews	-4601
▁commer	-4602
▁propert	-4603
fragen	-4604
▁entwickelt	-4605
.000	-4606
▁transl	-4607
ko	-4608
▁Abgeordneten	-4609
▁80	-4610
otos	-4611
▁customer	-4612
▁answer	-4613
▁space	-4614
▁später	-4615
▁enable	-4616
frei	-4617
öglichen	-4618
▁Dialog	-4619
▁hours	-4620
▁communication	-4621
imme	-4622
▁draw	-4623
stead	-4624
▁Gruppe	-4625
pose	-4626
▁Staats	-4627
lle	-4628
plätze	-4629
▁weiß	-4630
iance	-4631
▁Antwort	-4632
öffentlich	-4633
▁users	-4634
▁denke	-4635
▁Luft	-4636
▁Außerdem	-4637
▁eth	-4638
▁early	-4639
▁Up	-4640
▁August	-4641
▁throughout	-4642
zer	-4643
▁Nat	-4644
▁Fund	-4645
▁Zum	-4646
orf	-4647
▁angenommen	-4648
▁emphas	-4649
isieren	-4650
▁univers	-4651
▁Kre	-4652
▁Währ	-4653
▁Denn	-4654
änden	-4655
▁impact	-4656
▁takes	-4657
▁aud	-4658
ändert	-4659
▁behand	-4660
▁doing	-4661
▁Hol	-4662
▁Ster	-4663
mm	-4664
▁jedem	-4665
▁across	-4666
anced	-4667
mitteln	-4668
ternal	-4669
programm	-4670
ceed	-4671
ässt	-4672
▁traditional	-4673
▁ever	-4674
▁parts	-4675
▁High	-4676
▁London	-4677
▁Online	-4678
unt	-4679
▁North	-4680
▁certainly	-4681
▁betra	-4682
oid	-4683
▁intens	-4684
▁Bereichen	-4685
▁internationale	-4686
▁mentioned	-4687
arbeitet	-4688
▁Gemeinschafts	-4689
enken	-4690
▁proper	-4691
▁solid	-4692
ült	-4693
indest	-4694
▁Leit	-4695
▁potential	-4696
ging	-4697
▁guest	-4698
ländern	-4699
▁colleag	-4700
▁gemeinsam	-4701
▁strengthen	-4702
▁Let	-4703
▁konnte	-4704
▁befinden	-4705
▁condition	-4706
fähigkeit	-4707
▁Terror	-4708
▁Konferenz	-4709
oper	-4710
▁wider	-4711
▁card	-4712
▁cross	-4713
cep	-4714
▁Ris	-4715
liegen	-4716
▁Sy	-4717
▁neues	-4718
▁record	-4719
▁Führ	-4720
kämpfung	-4721
▁Mag	-4722
▁äußer	-4723
iens	-4724
▁mechan	-4725
ump	-4726
▁vorh	-4727
▁original	-4728
▁hätte	-4729
▁Vertra	-4730
▁Feb	-4731
▁Iran	-4732
▁setzen	-4733
▁built	-4734
▁existing	-4735
▁lat	-4736
ipl	-4737
uren	-4738
▁consequ	-4739
ole	-4740
▁Kos	-4741
issions	-4742
▁Play	-4743
▁Beziehungen	-4744
zif	-4745
EL	-4746
▁although	-4747
▁divers	-4748
▁weiteren	-4749
▁took	-4750
▁English	-4751
▁Flugh	-4752
▁hinter	-4753
onom	-4754
▁Bahn	-4755
▁Kop	-4756
▁Bevölkerung	-4757
▁profit	-4758
▁performance	-4759
▁gleichzeitig	-4760
▁concerns	-4761
ällen	-4762
▁complex	-4763
▁connection	-4764
▁Pa	-4765
rad	-4766
▁relig	-4767
▁Pass	-4768
▁amount	-4769
ügen	-4770
äss	-4771
ösen	-4772
ork	-4773
▁neben	-4774
▁investment	-4775
▁tele	-4776
▁posit	-4777
▁leading	-4778
▁resol	-4779
▁Ed	-4780
▁umfassen	-4781
▁Vereinigten	-4782
▁erhö	-4783
▁zuf	-4784
▁lux	-4785
▁programmes	-4786
▁game	-4787
este	-4788
erei	-4789
va	-4790
▁erhe	-4791
igration	-4792
▁Turkey	-4793
▁party	-4794
▁Verbindung	-4795
▁heißt	-4796
hab	-4797
▁aktiv	-4798
▁Fuß	-4799
▁Government	-4800
▁Proz	-4801
ava	-4802
üsse	-4803
ctors	-4804
,000	-4805
▁jede	-4806
halte	-4807
▁writing	-4808
erc	-4809
fortun	-4810
▁Mor	-4811
▁parliament	-4812
▁Beitrag	-4813
▁Themen	-4814
▁absolute	-4815
▁confl	-4816
▁digital	-4817
▁model	-4818
▁Interessen	-4819
▁helfen	-4820
▁Vis	-4821
▁Aufgabe	-4822
ias	-4823
▁kleine	-4824
▁Schlussel	-4825
▁aware	-4826
teid	-4827
kr	-4828
▁rund	-4829
▁concerning	-4830
▁completely	-4831
▁Verordnung	-4832
▁Court	-4833
sehen	-4834
▁front	-4835
▁vö	-4836
kei	-4837
▁Forschung	-4838
▁extens	-4839
richtungen	-4840
▁community	-4841
▁Wettbewerbs	-4842
▁reasons	-4843
▁upd	-4844
▁nothing	-4845
▁empf	-4846
▁IS	-4847
▁media	-4848
griff	-4849
▁established	-4850
▁half	-4851
▁Barcel	-4852
▁28	-4853
▁internet	-4854
▁includes	-4855
▁joint	-4856
alter	-4857
▁decisions	-4858
esh	-4859
▁demonstr	-4860
länder	-4861
ID	-4862
▁Febru	-4863
▁Kontrolle	-4864
▁Einzel	-4865
▁Verpflicht	-4866
amera	-4867
▁gelten	-4868
▁culture	-4869
▁gestellt	-4870
▁spr	-4871
▁Com	-4872
▁mid	-4873
▁equipped	-4874
▁gegenwärt	-4875
▁committee	-4876
IP	-4877
▁Rel	-4878
▁assess	-4879
▁meinen	-4880
▁enlarge	-4881
▁Türkei	-4882
▁basic	-4883
OS	-4884
▁wichtigen	-4885
▁beit	-4886
▁Förderung	-4887
fon	-4888
▁holiday	-4889
▁prakt	-4890
hung	-4891
▁unseres	-4892
▁Stabil	-4893
ande	-4894
orre	-4895
▁search	-4896
▁Krise	-4897
aly	-4898
▁military	-4899
ological	-4900
handlung	-4901
▁Reform	-4902
clear	-4903
ille	-4904
ball	-4905
▁practice	-4906
mark	-4907
▁consult	-4908
▁allows	-4909
grat	-4910
▁speed	-4911
zös	-4912
▁Handel	-4913
▁err	-4914
▁26	-4915
affung	-4916
▁verd	-4917
orten	-4918
▁Link	-4919
▁Home	-4920
arity	-4921
▁une	-4922
ini	-4923
▁schwer	-4924
▁spezie	-4925
stre	-4926
▁America	-4927
▁population	-4928
quis	-4929
▁body	-4930
▁warm	-4931
▁click	-4932
▁Thank	-4933
esserung	-4934
una	-4935
führen	-4936
▁gestimmt	-4937
▁Standard	-4938
int	-4939
licken	-4940
hlen	-4941
▁Since	-4942
▁oblig	-4943
▁wa	-4944
▁liegen	-4945
▁Lux	-4946
▁agreements	-4947
▁choice	-4948
▁red	-4949
nissen	-4950
uffer	-4951
face	-4952
iterran	-4953
▁Kampf	-4954
▁Ru	-4955
▁gab	-4956
gangenen	-4957
▁Management	-4958
▁jedes	-4959
▁style	-4960
▁initiative	-4961
▁Ober	-4962
utt	-4963
▁Mitarbeiter	-4964
▁becom	-4965
▁files	-4966
▁transfer	-4967
▁advant	-4968
▁center	-4969
▁Imm	-4970
▁erinn	-4971
▁bekommen	-4972
serv	-4973
formen	-4974
fluss	-4975
▁Strand	-4976
▁Entschließung	-4977
▁received	-4978
▁package	-4979
inden	-4980
▁nahe	-4981
odell	-4982
ills	-4983
ünschen	-4984
ba	-4985
▁computer	-4986
bedingungen	-4987
fil	-4988
▁bleibt	-4989
▁Erweiterung	-4990
itness	-4991
▁Lisbon	-4992
ush	-4993
zunehmen	-4994
▁values	-4995
▁objectives	-4996
zeugen	-4997
rachen	-4998
▁plann	-4999
▁satisf	-5000
▁Dokument	-5001
istrat	-5002
range	-5003
▁image	-5004
▁Urlaub	-5005
▁wegen	-5006
▁Now	-5007
ovo	-5008
▁Reise	-5009
▁Behörden	-5010
AM	-5011
▁Club	-5012
▁simple	-5013
▁prim	-5014
▁jobs	-5015
▁Nutzung	-5016
sitz	-5017
älle	-5018
▁equipment	-5019
▁applications	-5020
▁emer	-5021
▁sound	-5022
▁Cons	-5023
▁capac	-5024
▁harmon	-5025
▁wunder	-5026
▁Aufent	-5027
▁Ausschusses	-5028
▁amer	-5029
vement	-5030
▁Damit	-5031
▁angem	-5032
▁richtig	-5033
annte	-5034
gl	-5035
▁face	-5036
▁Ze	-5037
▁bess	-5038
abon	-5039
▁gerne	-5040
iated	-5041
▁poor	-5042
▁Veranst	-5043
▁border	-5044
▁Prior	-5045
▁East	-5046
▁pleas	-5047
▁Lösungen	-5048
▁fail	-5049
ying	-5050
▁Pan	-5051
ico	-5052
▁erlaub	-5053
▁regarding	-5054
▁Here	-5055
▁Liss	-5056
▁efficient	-5057
▁glob	-5058
geschlossen	-5059
▁lok	-5060
▁Augen	-5061
jahr	-5062
▁Bad	-5063
▁agricultural	-5064
▁fran	-5065
▁Bitte	-5066
▁move	-5067
▁sag	-5068
▁500	-5069
▁unabhäng	-5070
▁Volk	-5071
▁industrial	-5072
▁jud	-5073
▁Stunden	-5074
▁option	-5075
ologie	-5076
▁durchge	-5077
▁purch	-5078
osen	-5079
▁verantwort	-5080
▁benefit	-5081
▁keyword	-5082
▁City	-5083
▁Auswahl	-5084
▁Ho	-5085
len	-5086
▁Star	-5087
▁Ukra	-5088
▁attra	-5089
▁Volks	-5090
mbol	-5091
▁initi	-5092
▁Sant	-5093
▁wichtigsten	-5094
▁south	-5095
▁objective	-5096
▁sun	-5097
▁broad	-5098
ördern	-5099
▁Sim	-5100
▁Wochen	-5101
▁wonder	-5102
tes	-5103
▁mehrere	-5104
öst	-5105
▁below	-5106
▁quickly	-5107
ason	-5108
▁Frankreich	-5109
▁Angebot	-5110
▁reports	-5111
pite	-5112
pected	-5113
▁herr	-5114
▁engine	-5115
ology	-5116
ourn	-5117
eden	-5118
▁einger	-5119
ET	-5120
▁code	-5121
ikanischen	-5122
uted	-5123
▁attack	-5124
▁note	-5125
▁self	-5126
▁Forder	-5127
▁spend	-5128
▁cru	-5129
lang	-5130
gesamt	-5131
▁Lissabon	-5132
▁Zw	-5133
jähr	-5134
▁Notwend	-5135
icles	-5136
▁ganze	-5137
▁schön	-5138
stellungen	-5139
▁Fach	-5140
essour	-5141
more	-5142
öhn	-5143
ED	-5144
▁enthält	-5145
▁ganzen	-5146
ennung	-5147
vious	-5148
▁goods	-5149
▁passen	-5150
▁Kern	-5151
erve	-5152
imension	-5153
ón	-5154
inne	-5155
▁hinsichtlich	-5156
▁experien	-5157
▁Tem	-5158
▁treatment	-5159
▁floor	-5160
alien	-5161
▁rail	-5162
▁nachhalt	-5163
▁contains	-5164
▁Business	-5165
▁CO	-5166
nern	-5167
▁Les	-5168
ernen	-5169
▁double	-5170
▁popular	-5171
▁huge	-5172
▁Gebä	-5173
▁wobei	-5174
▁Amend	-5175
ery	-5176
▁Verbesserung	-5177
▁Innov	-5178
▁Binnenmarkt	-5179
▁Server	-5180
statt	-5181
teller	-5182
▁Insel	-5183
▁ermöglichen	-5184
rab	-5185
▁Program	-5186
schließend	-5187
lla	-5188
brigen	-5189
▁trotz	-5190
▁sense	-5191
undes	-5192
▁achieved	-5193
▁Barcelona	-5194
onnen	-5195
▁Enter	-5196
ften	-5197
▁spac	-5198
chter	-5199
▁Anfang	-5200
▁Log	-5201
▁Gree	-5202
▁garant	-5203
▁ut	-5204
plies	-5205
oo	-5206
▁Personal	-5207
▁Post	-5208
▁Benutzer	-5209
gelt	-5210
▁ill	-5211
▁nice	-5212
▁x	-5213
▁correct	-5214
▁indeed	-5215
▁Affairs	-5216
opping	-5217
▁seems	-5218
cks	-5219
äum	-5220
▁leben	-5221
▁congrat	-5222
▁zeigen	-5223
▁Material	-5224
▁ruh	-5225
▁Mic	-5226
▁veh	-5227
mann	-5228
▁Ke	-5229
▁June	-5230
fahrt	-5231
fonds	-5232
assung	-5233
sterreich	-5234
▁beein	-5235
▁mittel	-5236
▁Somm	-5237
▁recently	-5238
▁active	-5239
▁Bef	-5240
▁Gelegenheit	-5241
▁block	-5242
▁EN	-5243
ünsch	-5244
▁verg	-5245
▁Finally	-5246
möglichkeit	-5247
▁Mich	-5248
▁garden	-5249
▁Install	-5250
▁Lauf	-5251
▁Tage	-5252
▁frü	-5253
▁Liefer	-5254
▁vict	-5255
wander	-5256
▁stage	-5257
wertungen	-5258
▁FR	-5259
▁oil	-5260
aving	-5261
iveness	-5262
▁à	-5263
▁carry	-5264
erweise	-5265
▁super	-5266
▁Sm	-5267
▁Some	-5268
▁furn	-5269
▁highly	-5270
▁grund	-5271
emb	-5272
▁beginning	-5273
ostels	-5274
prozess	-5275
itect	-5276
▁leaders	-5277
ering	-5278
▁series	-5279
▁presented	-5280
▁dialogue	-5281
▁age	-5282
itel	-5283
▁Ergebnisse	-5284
▁tw	-5285
▁Central	-5286
▁Bra	-5287
▁Schaffung	-5288
▁Amster	-5289
▁spielen	-5290
oppel	-5291
▁los	-5292
▁successful	-5293
▁scient	-5294
▁kulture	-5295
▁Lu	-5296
ienste	-5297
seit	-5298
istische	-5299
▁Darüber	-5300
haupt	-5301
▁office	-5302
▁Second	-5303
▁everyone	-5304
mor	-5305
▁exchange	-5306
kennen	-5307
▁einzig	-5308
▁Berg	-5309
▁Jugend	-5310
▁Global	-5311
▁völlig	-5312
▁heut	-5313
▁Verwendung	-5314
lassen	-5315
▁levels	-5316
▁comprom	-5317
▁Bud	-5318
▁Krieg	-5319
▁Roman	-5320
▁Zweit	-5321
▁Social	-5322
▁DV	-5323
▁Woche	-5324
itable	-5325
▁Gewalt	-5326
▁Wachstum	-5327
▁Voraus	-5328
iment	-5329
▁integration	-5330
ßt	-5331
fortunately	-5332
fo	-5333
▁31	-5334
▁Mac	-5335
▁size	-5336
▁added	-5337
▁Leg	-5338
temp	-5339
vorschriften	-5340
alu	-5341
▁Initiative	-5342
icien	-5343
▁Anzahl	-5344
RO	-5345
▁überw	-5346
ätigkeit	-5347
▁verbessern	-5348
▁Russland	-5349
▁Macht	-5350
▁seek	-5351
▁Solid	-5352
▁Sil	-5353
▁konkre	-5354
stances	-5355
▁direction	-5356
▁guten	-5357
otion	-5358
▁consumers	-5359
▁news	-5360
gef	-5361
▁traff	-5362
▁mal	-5363
▁sex	-5364
▁carried	-5365
▁Linux	-5366
▁sent	-5367
▁lässt	-5368
▁increased	-5369
▁verwenden	-5370
▁Ferien	-5371
▁Chin	-5372
▁exc	-5373
▁eigene	-5374
▁reviews	-5375
▁Rot	-5376
ara	-5377
▁stra	-5378
▁dre	-5379
xis	-5380
lam	-5381
▁Wein	-5382
▁Informations	-5383
anzen	-5384
▁Col	-5385
▁grundlegen	-5386
▁frei	-5387
▁agreed	-5388
▁Don	-5389
▁six	-5390
▁former	-5391
▁amendment	-5392
▁commercial	-5393
▁Further	-5394
▁90	-5395
▁Golf	-5396
▁Get	-5397
▁verfügen	-5398
isted	-5399
▁governments	-5400
örper	-5401
▁29	-5402
imming	-5403
▁300	-5404
▁coll	-5405
onse	-5406
atell	-5407
▁choose	-5408
▁principles	-5409
▁subsid	-5410
▁whose	-5411
▁supply	-5412
▁Dan	-5413
▁großer	-5414
ps	-5415
izien	-5416
▁pain	-5417
abor	-5418
▁pan	-5419
▁confirm	-5420
▁Zeitpunkt	-5421
▁Notwendigkeit	-5422
▁asked	-5423
ützen	-5424
fordert	-5425
▁70	-5426
▁schö	-5427
hoben	-5428
▁Hinter	-5429
▁rat	-5430
▁dang	-5431
▁Familie	-5432
▁har	-5433
▁gefähr	-5434
▁soziale	-5435
▁verfüg	-5436
▁Eigen	-5437
▁Aud	-5438
▁häuf	-5439
▁bi	-5440
▁Ham	-5441
aschinen	-5442
▁atmosph	-5443
▁higher	-5444
anner	-5445
▁Therefore	-5446
▁meinem	-5447
▁Vertrags	-5448
buch	-5449
▁shows	-5450
ature	-5451
▁diskut	-5452
ams	-5453
▁similar	-5454
▁hotels	-5455
▁Gip	-5456
pflich	-5457
lant	-5458
ley	-5459
▁stress	-5460
▁Debian	-5461
▁Organisation	-5462
▁tell	-5463
▁commitment	-5464
▁perhaps	-5465
▁Maß	-5466
▁categor	-5467
▁Änderungen	-5468
ändig	-5469
▁zunächst	-5470
griffen	-5471
dom	-5472
verständlich	-5473
▁Je	-5474
ungss	-5475
▁shown	-5476
▁gesamte	-5477
▁obtain	-5478
▁künft	-5479
▁Män	-5480
träge	-5481
▁Pers	-5482
▁Well	-5483
▁ten	-5484
▁thanks	-5485
▁anzu	-5486
▁considered	-5487
▁Cap	-5488
atast	-5489
▁gehören	-5490
bie	-5491
▁Juni	-5492
▁influen	-5493
▁matters	-5494
▁fördern	-5495
▁rein	-5496
atic	-5497
▁innovative	-5498
▁gelegen	-5499
▁nuclear	-5500
▁depend	-5501
▁avoid	-5502
▁Develop	-5503
▁Mai	-5504
▁effects	-5505
▁vorhanden	-5506
iglich	-5507
▁aspects	-5508
▁gleichen	-5509
fält	-5510
▁Sum	-5511
▁Überein	-5512
▁operation	-5513
▁Nieder	-5514
iko	-5515
ängt	-5516
▁Alt	-5517
▁Article	-5518
▁Inde	-5519
▁Erfahrung	-5520
▁Umgebung	-5521
▁Dez	-5522
▁latest	-5523
ufficient	-5524
▁Of	-5525
▁setting	-5526
▁Lat	-5527
standen	-5528
▁dynam	-5529
▁tatsächlich	-5530
schw	-5531
▁sorgen	-5532
PE	-5533
▁Balk	-5534
inger	-5535
▁Anwend	-5536
▁Herzen	-5537
staat	-5538
greifen	-5539
▁came	-5540
med	-5541
wise	-5542
▁Transport	-5543
▁Wahr	-5544
▁promote	-5545
▁Beschl	-5546
such	-5547
▁Tat	-5548
▁schriftlich	-5549
▁Pla	-5550
▁phys	-5551
ption	-5552
osp	-5553
action	-5554
▁prepared	-5555
▁eindeut	-5556
leb	-5557
akter	-5558
▁Open	-5559
lös	-5560
▁Mehrheit	-5561
▁video	-5562
▁Kontakt	-5563
▁behind	-5564
▁Weiter	-5565
▁sofort	-5566
mehr	-5567
▁summer	-5568
▁review	-5569
▁rates	-5570
▁König	-5571
▁Während	-5572
▁accommodation	-5573
▁komplet	-5574
▁spir	-5575
mitt	-5576
▁Museum	-5577
ously	-5578
▁opportunities	-5579
▁eig	-5580
gn	-5581
▁Loc	-5582
organis	-5583
▁materials	-5584
▁possibility	-5585
▁Spain	-5586
▁miss	-5587
äst	-5588
▁Regierungen	-5589
aufen	-5590
▁verstär	-5591
minister	-5592
▁Cal	-5593
▁atmosphere	-5594
▁Stellung	-5595
▁Einführung	-5596
▁Agr	-5597
artige	-5598
▁geführt	-5599
▁Dabei	-5600
ausch	-5601
▁Kommunik	-5602
agn	-5603
▁relevant	-5604
▁arg	-5605
▁Position	-5606
▁lay	-5607
▁Konfl	-5608
ored	-5609
▁easily	-5610
▁ernst	-5611
okoll	-5612
ilen	-5613
▁leicht	-5614
▁äußerst	-5615
essourcen	-5616
astic	-5617
▁entwickeln	-5618
▁Dom	-5619
▁lik	-5620
▁exhib	-5621
icherung	-5622
▁terra	-5623
ployment	-5624
▁pressure	-5625
▁draft	-5626
▁Oct	-5627
▁reached	-5628
▁Amsterdam	-5629
▁response	-5630
▁external	-5631
itting	-5632
ierenden	-5633
ühm	-5634
▁creation	-5635
owers	-5636
▁elekt	-5637
ausschuss	-5638
▁green	-5639
▁providing	-5640
▁Arg	-5641
gene	-5642
▁verstehen	-5643
▁hoff	-5644
ends	-5645
▁Ratspräsident	-5646
itzen	-5647
▁deta	-5648
▁geschlossen	-5649
unsch	-5650
ahren	-5651
▁größten	-5652
uffet	-5653
▁Sprache	-5654
▁af	-5655
▁Italy	-5656
▁capacity	-5657
▁Vereinbar	-5658
IL	-5659
▁sustainable	-5660
▁schle	-5661
▁criter	-5662
▁Convention	-5663
▁coming	-5664
▁somit	-5665
▁Aktivitäten	-5666
▁death	-5667
aren	-5668
▁dring	-5669
▁decided	-5670
des	-5671
▁Rev	-5672
▁Republic	-5673
iction	-5674
▁hohen	-5675
▁Eing	-5676
▁reduce	-5677
▁gewährleisten	-5678
▁prob	-5679
▁submitted	-5680
umb	-5681
ächt	-5682
zeugt	-5683
just	-5684
▁Camp	-5685
rechend	-5686
▁prepar	-5687
▁condu	-5688
▁gross	-5689
▁Höhe	-5690
kraft	-5691
▁lediglich	-5692
▁Produktion	-5693
rang	-5694
will	-5695
▁sites	-5696
istics	-5697
zub	-5698
▁closed	-5699
quare	-5700
▁Ents	-5701
▁fal	-5702
idel	-5703
▁Net	-5704
▁35	-5705
▁Market	-5706
▁Stad	-5707
▁erfolgreich	-5708
arily	-5709
▁details	-5710
▁gives	-5711
▁ord	-5712
▁Africa	-5713
▁places	-5714
▁Wettbewerb	-5715
▁verpflich	-5716
▁gebracht	-5717
▁beteil	-5718
ierter	-5719
▁register	-5720
rid	-5721
▁WTO	-5722
▁Integration	-5723
▁train	-5724
▁concept	-5725
▁British	-5726
▁neigh	-5727
▁regular	-5728
és	-5729
▁Neben	-5730
ibilities	-5731
▁Fehler	-5732
▁determin	-5733
▁board	-5734
▁enlargement	-5735
▁Di	-5736
▁Film	-5737
▁Down	-5738
▁priority	-5739
▁ausgestattet	-5740
ki	-5741
▁Bu	-5742
▁Kan	-5743
▁Ukraine	-5744
▁employe	-5745
▁1998	-5746
▁March	-5747
▁actions	-5748
▁Gemeins	-5749
▁Komprom	-5750
iles	-5751
▁island	-5752
▁December	-5753
bert	-5754
▁announ	-5755
ja	-5756
estens	-5757
▁Kommissarin	-5758
▁display	-5759
▁Sicht	-5760
▁adap	-5761
ounts	-5762
▁vern	-5763
iately	-5764
▁Also	-5765
▁Oper	-5766
▁Spa	-5767
stellt	-5768
▁partner	-5769
▁architect	-5770
▁Har	-5771
uern	-5772
▁suffer	-5773
▁Western	-5774
volle	-5775
▁virt	-5776
▁Systems	-5777
jekt	-5778
▁Erachten	-5779
▁Booking	-5780
▁property	-5781
▁bestimmte	-5782
▁Erachtens	-5783
▁Bekämpfung	-5784
▁wirtschaftliche	-5785
▁cause	-5786
▁Kosovo	-5787
▁erschein	-5788
iture	-5789
uel	-5790
ney	-5791
OL	-5792
▁consumer	-5793
▁remains	-5794
▁leave	-5795
▁anderer	-5796
▁meines	-5797
▁Italien	-5798
ulgar	-5799
▁obwohl	-5800
▁balance	-5801
▁Standpunkt	-5802
▁Okt	-5803
▁supported	-5804
▁zahlreiche	-5805
▁credit	-5806
▁zweite	-5807
maßnahmen	-5808
▁independent	-5809
▁Dinge	-5810
▁Jed	-5811
▁Instrument	-5812
▁Freiheit	-5813
▁funding	-5814
zeuge	-5815
▁discover	-5816
▁sport	-5817
ado	-5818
▁limited	-5819
rehens	-5820
roat	-5821
industrie	-5822
▁ground	-5823
▁ähn	-5824
rief	-5825
▁foot	-5826
cker	-5827
▁describ	-5828
▁erhält	-5829
▁bestimmten	-5830
▁schl	-5831
▁Aspe	-5832
▁Transpar	-5833
ündet	-5834
▁purpose	-5835
▁repla	-5836
▁assistance	-5837
,5	-5838
kommens	-5839
▁vorgesehen	-5840
▁Folgen	-5841
altungs	-5842
▁Medien	-5843
▁IN	-5844
▁entde	-5845
▁appear	-5846
▁rep	-5847
▁York	-5848
▁billion	-5849
IM	-5850
▁Gruppen	-5851
▁hy	-5852
▁Bestimmungen	-5853
▁Jo	-5854
emin	-5855
icy	-5856
▁einschließlich	-5857
▁Exper	-5858
zy	-5859
▁Party	-5860
▁highl	-5861
▁quiet	-5862
▁prot	-5863
▁Services	-5864
▁Nur	-5865
▁französ	-5866
▁erweit	-5867
▁movement	-5868
▁north	-5869
▁Fortschritte	-5870
ugs	-5871
ilos	-5872
setzungen	-5873
▁Basis	-5874
▁Preise	-5875
▁01	-5876
▁neuer	-5877
▁tragen	-5878
posed	-5879
▁mobile	-5880
▁woll	-5881
▁forms	-5882
▁hor	-5883
uert	-5884
▁administrat	-5885
▁Verkehrs	-5886
atastrop	-5887
adem	-5888
▁fix	-5889
iterranean	-5890
where	-5891
▁restaurants	-5892
▁ko	-5893
▁vorlie	-5894
▁limit	-5895
itzer	-5896
▁Italian	-5897
▁erk	-5898
▁Wohl	-5899
▁außerdem	-5900
▁liberal	-5901
mäßig	-5902
▁rich	-5903
selves	-5904
▁Punkte	-5905
▁exec	-5906
▁Dezember	-5907
iedr	-5908
▁creating	-5909
▁Fed	-5910
▁pleased	-5911
▁regulations	-5912
▁sagte	-5913
▁January	-5914
▁scheint	-5915
▁apartment	-5916
legenheiten	-5917
▁airport	-5918
▁brought	-5919
otes	-5920
▁lic	-5921
▁Erklärung	-5922
▁fig	-5923
▁else	-5924
▁construction	-5925
▁Instit	-5926
inal	-5927
▁largest	-5928
▁versuchen	-5929
iciency	-5930
▁Stelle	-5931
▁categories	-5932
▁DVD	-5933
▁Det	-5934
▁unterst	-5935
▁Site	-5936
lav	-5937
▁variety	-5938
▁produced	-5939
▁Pap	-5940
schnitt	-5941
ena	-5942
▁allein	-5943
▁erster	-5944
▁Prü	-5945
▁bestät	-5946
▁Zeich	-5947
▁friends	-5948
▁renov	-5949
spiel	-5950
▁Gal	-5951
▁PL	-5952
ghan	-5953
▁Schweiz	-5954
▁rule	-5955
▁gewor	-5956
▁Af	-5957
▁Ter	-5958
etimes	-5959
▁source	-5960
▁October	-5961
▁effe	-5962
▁solchen	-5963
▁host	-5964
▁wid	-5965
▁west	-5966
ournal	-5967
resp	-5968
▁Organ	-5969
▁conference	-5970
▁dadurch	-5971
ehen	-5972
ieg	-5973
▁insgesamt	-5974
hindern	-5975
▁Last	-5976
▁gemäß	-5977
▁chem	-5978
▁zweiten	-5979
▁Vorschriften	-5980
.5	-5981
ategorien	-5982
geber	-5983
▁Gefahr	-5984
▁Bundes	-5985
sy	-5986
▁hohe	-5987
▁repe	-5988
▁Unterk	-5989
wertung	-5990
▁message	-5991
▁Berichts	-5992
▁discussion	-5993
ützt	-5994
▁Forschungs	-5995
gesellschaft	-5996
▁Ged	-5997
lemented	-5998
isc	-5999
▁Jahrhundert	-6000
▁alten	-6001
ero	-6002
▁einzige	-6003
▁expla	-6004
▁Free	-6005
▁instead	-6006
▁aufgenommen	-6007
▁tä	-6008
stein	-6009
▁Privat	-6010
merksamkeit	-6011
▁Neu	-6012
▁Mart	-6013
▁measure	-6014
▁Every	-6015
bewertungen	-6016
▁distance	-6017
▁thous	-6018
▁King	-6019
möglichkeiten	-6020
aft	-6021
iot	-6022
▁dat	-6023
▁sus	-6024
▁erheb	-6025
▁Anforderungen	-6026
stag	-6027
▁Aufmerksamkeit	-6028
reibung	-6029
▁194	-6030
endes	-6031
▁interesting	-6032
▁Unternehmens	-6033
ritts	-6034
▁Flughafen	-6035
▁Küche	-6036
▁Mediterranean	-6037
▁became	-6038
parte	-6039
▁Gesundheits	-6040
▁vergangenen	-6041
ader	-6042
▁study	-6043
son	-6044
▁gee	-6045
▁fishing	-6046
▁Bilder	-6047
chsel	-6048
anischen	-6049
hil	-6050
igungen	-6051
▁bein	-6052
lekt	-6053
isters	-6054
legung	-6055
▁obvious	-6056
▁Entscheidungen	-6057
▁Abend	-6058
ächen	-6059
▁März	-6060
▁Wo	-6061
▁ext	-6062
▁steps	-6063
▁ways	-6064
kn	-6065
▁started	-6066
unternehmen	-6067
▁genießen	-6068
▁Mos	-6069
▁stability	-6070
▁Technologie	-6071
▁legislative	-6072
ürf	-6073
▁Tex	-6074
▁Oktober	-6075
▁Mult	-6076
▁Sign	-6077
▁Öffentlich	-6078
▁relationship	-6079
▁dut	-6080
▁accord	-6081
▁Imp	-6082
▁regards	-6083
▁task	-6084
besch	-6085
▁round	-6086
▁Today	-6087
▁ändern	-6088
▁hous	-6089
▁hervorra	-6090
ford	-6091
anging	-6092
bre	-6093
porate	-6094
falt	-6095
▁allowed	-6096
▁instrument	-6097
▁san	-6098
▁medium	-6099
▁produce	-6100
▁Projekte	-6101
▁kit	-6102
▁Computer	-6103
cement	-6104
▁vertreten	-6105
▁activity	-6106
▁procedures	-6107
oking	-6108
▁compon	-6109
▁mor	-6110
polit	-6111
▁fisher	-6112
ämt	-6113
▁Villa	-6114
angt	-6115
▁Protokoll	-6116
anlage	-6117
ägt	-6118
▁morgen	-6119
▁Spanish	-6120
▁Bon	-6121
▁Erzeug	-6122
▁compromise	-6123
▁written	-6124
altet	-6125
▁keiner	-6126
▁Hung	-6127
▁status	-6128
▁eigentlich	-6129
ronic	-6130
▁Test	-6131
▁Ost	-6132
utter	-6133
▁Prinzip	-6134
▁div	-6135
▁Metho	-6136
yond	-6137
▁Städ	-6138
▁konzentr	-6139
iker	-6140
▁Juli	-6141
kont	-6142
▁Landwirtschaft	-6143
▁contribution	-6144
▁She	-6145
▁exact	-6146
▁Bereiche	-6147
▁film	-6148
▁Belg	-6149
▁Rights	-6150
▁Staat	-6151
▁village	-6152
▁jün	-6153
▁Öffentlichkeit	-6154
▁Anfrage	-6155
prises	-6156
mission	-6157
page	-6158
▁leider	-6159
▁Ansatz	-6160
▁beschäft	-6161
▁forder	-6162
▁giving	-6163
lines	-6164
▁Beschäftigung	-6165
▁Inn	-6166
▁Real	-6167
▁Präsidenten	-6168
▁conven	-6169
▁cy	-6170
▁Cost	-6171
▁evalu	-6172
▁fall	-6173
▁Kur	-6174
▁Grenzen	-6175
▁Transparenz	-6176
▁betroffen	-6177
▁schließlich	-6178
▁cu	-6179
▁Hel	-6180
annen	-6181
▁base	-6182
itude	-6183
▁historical	-6184
▁Ist	-6185
▁pal	-6186
räfte	-6187
▁erwarten	-6188
▁provisions	-6189
oker	-6190
kle	-6191
aking	-6192
▁labour	-6193
▁Stär	-6194
letzt	-6195
▁instruments	-6196
▁got	-6197
▁damage	-6198
▁July	-6199
▁accep	-6200
ibil	-6201
▁relation	-6202
▁During	-6203
▁eingesetzt	-6204
ugg	-6205
▁purs	-6206
▁mountain	-6207
▁documents	-6208
▁Wider	-6209
▁konnten	-6210
▁häufig	-6211
ienten	-6212
▁leisten	-6213
▁eleg	-6214
▁klein	-6215
▁fehl	-6216
▁section	-6217
▁Arbeitnehmer	-6218
▁statement	-6219
▁Empfehl	-6220
overty	-6221
▁minor	-6222
▁prefer	-6223
▁Development	-6224
▁wenige	-6225
▁ourselves	-6226
▁Term	-6227
▁dise	-6228
▁gain	-6229
▁jähr	-6230
ades	-6231
▁freund	-6232
▁criteria	-6233
▁ine	-6234
▁bra	-6235
▁Sommer	-6236
▁Java	-6237
länd	-6238
▁Ere	-6239
▁regel	-6240
▁zentr	-6241
prün	-6242
▁mem	-6243
▁Ol	-6244
▁launch	-6245
▁Portugal	-6246
dienst	-6247
▁Democ	-6248
▁violence	-6249
▁Gast	-6250
enntnis	-6251
▁depart	-6252
▁won	-6253
▁verm	-6254
▁Auftrag	-6255
▁Auto	-6256
öffnet	-6257
▁Diskussion	-6258
▁firm	-6259
▁types	-6260
▁conflict	-6261
▁pen	-6262
ühungen	-6263
▁comprehens	-6264
ivity	-6265
EM	-6266
▁Meine	-6267
▁const	-6268
▁genommen	-6269
▁durchgeführt	-6270
▁AL	-6271
▁Vorsitz	-6272
ifik	-6273
▁Firma	-6274
▁structure	-6275
wide	-6276
▁path	-6277
lichkeiten	-6278
▁benötigen	-6279
▁stock	-6280
▁urs	-6281
▁1997	-6282
ued	-6283
▁loss	-6284
▁Bildung	-6285
▁Ta	-6286
▁wine	-6287
▁tran	-6288
▁grat	-6289
▁gran	-6290
▁Untersuch	-6291
ech	-6292
orgt	-6293
▁Verl	-6294
▁Spezial	-6295
▁select	-6296
In	-6297
▁Many	-6298
zt	-6299
iete	-6300
▁gas	-6301
etary	-6302
▁geworden	-6303
▁Flor	-6304
▁Regeln	-6305
ato	-6306
sh	-6307
rats	-6308
▁worth	-6309
▁Innen	-6310
▁Januar	-6311
▁suchen	-6312
▁Your	-6313
▁ski	-6314
▁Et	-6315
▁Mann	-6316
itial	-6317
▁fell	-6318
▁berühm	-6319
▁unmittel	-6320
▁perfe	-6321
lare	-6322
cia	-6323
pret	-6324
▁constant	-6325
▁Ba	-6326
▁kannst	-6327
▁integrated	-6328
▁highest	-6329
▁benefits	-6330
▁gre	-6331
▁Center	-6332
▁brit	-6333
▁Linie	-6334
▁Bulgar	-6335
▁University	-6336
▁Nationen	-6337
▁Hy	-6338
▁immediately	-6339
▁drive	-6340
▁distribution	-6341
uls	-6342
kosten	-6343
isp	-6344
▁Tradition	-6345
▁End	-6346
▁Aufenthalt	-6347
▁Investitionen	-6348
▁Video	-6349
ograf	-6350
▁Schwier	-6351
▁europäischer	-6352
▁elements	-6353
▁ult	-6354
▁aktuellen	-6355
▁observ	-6356
▁Although	-6357
▁Mobil	-6358
▁kennen	-6359
ateral	-6360
▁reading	-6361
▁payment	-6362
▁transparency	-6363
ierende	-6364
▁parking	-6365
▁Sinne	-6366
▁dein	-6367
▁Afghan	-6368
▁Nr	-6369
▁rene	-6370
▁Centre	-6371
freund	-6372
▁Solidar	-6373
ought	-6374
▁Agent	-6375
▁Mid	-6376
▁Gründen	-6377
drücklich	-6378
▁wichtiger	-6379
▁gefunden	-6380
forderung	-6381
▁useful	-6382
▁tim	-6383
icklung	-6384
▁helpful	-6385
ground	-6386
wesen	-6387
▁finally	-6388
▁alternative	-6389
▁employees	-6390
ira	-6391
▁gele	-6392
▁ursprün	-6393
leitet	-6394
▁ihres	-6395
▁threat	-6396
works	-6397
EP	-6398
▁paid	-6399
▁zeit	-6400
▁equal	-6401
ört	-6402
▁ey	-6403
▁Las	-6404
▁lower	-6405
fordern	-6406
▁Rede	-6407
▁tools	-6408
▁Veränder	-6409
▁weder	-6410
ieht	-6411
▁dep	-6412
ichert	-6413
▁Lebensmittel	-6414
▁Präsidentschaft	-6415
▁höher	-6416
▁growing	-6417
mosphäre	-6418
▁late	-6419
nungs	-6420
wortern	-6421
▁bezüglich	-6422
▁numerous	-6423
▁halte	-6424
▁Auffassung	-6425
▁vorge	-6426
▁Iraq	-6427
▁bad	-6428
▁wan	-6429
orning	-6430
orgung	-6431
idge	-6432
▁Are	-6433
▁hom	-6434
▁applied	-6435
▁Sache	-6436
▁apartments	-6437
urance	-6438
▁Gott	-6439
▁Furthermore	-6440
▁agenda	-6441
▁daily	-6442
dra	-6443
▁drink	-6444
frastruct	-6445
zusch	-6446
▁bathroom	-6447
uche	-6448
ücken	-6449
▁phot	-6450
▁teach	-6451
eks	-6452
▁coast	-6453
▁hear	-6454
▁begrüße	-6455
▁niedr	-6456
cription	-6457
▁geschaffen	-6458
▁Koh	-6459
▁consist	-6460
park	-6461
▁Ven	-6462
▁sonst	-6463
▁affect	-6464
▁occas	-6465
▁Gas	-6466
▁überprü	-6467
▁Heute	-6468
▁processes	-6469
ängen	-6470
aign	-6471
▁offering	-6472
wh	-6473
▁van	-6474
engen	-6475
▁elections	-6476
▁sufficient	-6477
▁Aufgaben	-6478
▁angesichts	-6479
▁Val	-6480
▁reality	-6481
▁challenges	-6482
▁TM	-6483
zeichnung	-6484
wa	-6485
▁attract	-6486
äte	-6487
▁Straßen	-6488
▁Ereign	-6489
▁übrigen	-6490
legation	-6491
▁analysis	-6492
▁solidarity	-6493
▁erneut	-6494
▁Beginn	-6495
ummer	-6496
rosoft	-6497
▁sieht	-6498
▁Bürgern	-6499
▁pie	-6500
rooms	-6501
▁Ess	-6502
▁bem	-6503
▁mis	-6504
▁Kor	-6505
▁eher	-6506
▁treffen	-6507
▁saying	-6508
▁poverty	-6509
▁perman	-6510
obby	-6511
▁Kn	-6512
▁bringt	-6513
▁humanit	-6514
▁erfahren	-6515
▁Betrieb	-6516
▁plant	-6517
ammlung	-6518
▁Restaurants	-6519
▁kur	-6520
▁Beteil	-6521
▁spirit	-6522
zone	-6523
▁wissenschaft	-6524
▁Bal	-6525
vors	-6526
▁Agrar	-6527
▁ign	-6528
▁unem	-6529
▁früher	-6530
▁entsprechenden	-6531
▁consequences	-6532
▁32	-6533
uck	-6534
▁frequ	-6535
▁thought	-6536
▁happy	-6537
▁colleagues	-6538
▁diejenigen	-6539
▁veröffentlich	-6540
▁welcom	-6541
bezogen	-6542
▁Tagesordnung	-6543
▁kil	-6544
richten	-6545
zuführen	-6546
▁ziehen	-6547
ören	-6548
▁mut	-6549
izin	-6550
▁offered	-6551
▁Vertreter	-6552
ral	-6553
ogle	-6554
zwe	-6555
▁entsprechend	-6556
ais	-6557
▁goes	-6558
ichern	-6559
▁45	-6560
wser	-6561
▁sales	-6562
▁illegal	-6563
▁ol	-6564
▁practical	-6565
▁Mass	-6566
elten	-6567
▁beyond	-6568
ünstler	-6569
▁AC	-6570
▁persons	-6571
phone	-6572
▁Datei	-6573
▁Beruf	-6574
▁legit	-6575
ilosoph	-6576
▁öffentliche	-6577
▁syn	-6578
▁Room	-6579
schlag	-6580
▁exception	-6581
▁Econom	-6582
▁beitragen	-6583
mö	-6584
▁undert	-6585
▁Fällen	-6586
▁Armut	-6587
▁hinzu	-6588
▁server	-6589
ünde	-6590
▁las	-6591
OT	-6592
▁Palest	-6593
▁Ak	-6594
▁Human	-6595
▁ban	-6596
▁vergessen	-6597
spricht	-6598
▁Folge	-6599
▁modified	-6600
▁Flü	-6601
folge	-6602
▁ausgezeich	-6603
▁hil	-6604
hesion	-6605
▁Hal	-6606
ffizien	-6607
▁Bot	-6608
▁ideas	-6609
▁Nachbar	-6610
▁minimum	-6611
▁Bedürf	-6612
▁Ressourcen	-6613
iability	-6614
▁Bemühungen	-6615
▁krit	-6616
▁Microsoft	-6617
UR	-6618
zehn	-6619
▁Gel	-6620
wind	-6621
▁Monaten	-6622
▁shopping	-6623
▁Dateien	-6624
fühl	-6625
▁Änderung	-6626
prec	-6627
hilfe	-6628
▁requires	-6629
achtung	-6630
▁historic	-6631
▁kostenlos	-6632
▁Austria	-6633
▁SM	-6634
▁Security	-6635
▁Gebäude	-6636
schließen	-6637
scheinlich	-6638
▁implemented	-6639
▁ready	-6640
▁Wunsch	-6641
ares	-6642
▁Grö	-6643
ünsche	-6644
▁Saf	-6645
▁Grand	-6646
▁Public	-6647
▁getan	-6648
▁Produktions	-6649
▁zehn	-6650
▁congratulate	-6651
▁waste	-6652
▁behandelt	-6653
▁unbe	-6654
▁tomor	-6655
▁erfolgt	-6656
▁IP	-6657
▁clients	-6658
▁Werte	-6659
▁organisations	-6660
▁Est	-6661
▁buy	-6662
▁secure	-6663
▁Even	-6664
▁Cop	-6665
▁tomorrow	-6666
▁präsent	-6667
▁Zentral	-6668
▁Del	-6669
▁Dritt	-6670
▁Tagen	-6671
▁verhindern	-6672
▁advantage	-6673
▁starting	-6674
▁langfrist	-6675
▁efficiency	-6676
iveau	-6677
▁terrorism	-6678
▁weeks	-6679
bin	-6680
ione	-6681
▁Bürgerinnen	-6682
craft	-6683
▁renew	-6684
▁infrastruct	-6685
▁....	-6686
▁vorher	-6687
▁operating	-6688
▁forces	-6689
ocol	-6690
heben	-6691
▁genannten	-6692
▁reference	-6693
▁doubt	-6694
▁machine	-6695
▁Start	-6696
tellten	-6697
▁beant	-6698
▁Atmosphäre	-6699
▁Behandlung	-6700
▁partnership	-6701
wart	-6702
▁Völk	-6703
vere	-6704
▁Nacht	-6705
itors	-6706
▁Enterprise	-6707
ula	-6708
▁weak	-6709
▁hätten	-6710
▁nimmt	-6711
▁extend	-6712
▁Ac	-6713
▁published	-6714
▁sports	-6715
angeb	-6716
▁crucial	-6717
▁monitoring	-6718
▁lines	-6719
sych	-6720
▁meaning	-6721
▁Republik	-6722
▁anderem	-6723
▁Inhalt	-6724
▁Tor	-6725
front	-6726
ifel	-6727
DF	-6728
head	-6729
▁Stock	-6730
▁Menschenrechts	-6731
▁reich	-6732
▁Gef	-6733
▁maximum	-6734
▁morning	-6735
▁besondere	-6736
▁wr	-6737
gewiesen	-6738
▁Kommissions	-6739
▁Id	-6740
▁discrimin	-6741
ya	-6742
▁Pet	-6743
▁Kredit	-6744
▁ful	-6745
cape	-6746
▁reduction	-6747
ischem	-6748
▁street	-6749
▁Gest	-6750
▁Amendment	-6751
▁Dat	-6752
lose	-6753
▁jüng	-6754
▁paar	-6755
▁restr	-6756
▁sometimes	-6757
▁comprehensive	-6758
ibe	-6759
▁Gerichts	-6760
▁Modell	-6761
änge	-6762
▁ausreich	-6763
▁Spieler	-6764
▁sal	-6765
▁Green	-6766
▁anti	-6767
▁Aller	-6768
icken	-6769
lungs	-6770
▁Erfahrungen	-6771
▁Download	-6772
▁Minder	-6773
▁versucht	-6774
▁Mand	-6775
enk	-6776
▁Initi	-6777
▁options	-6778
theless	-6779
irl	-6780
▁ES	-6781
esellschaften	-6782
▁1996	-6783
▁Natürlich	-6784
aktion	-6785
▁uner	-6786
zielle	-6787
▁Vergangen	-6788
▁les	-6789
▁lives	-6790
▁pictures	-6791
▁Altern	-6792
▁export	-6793
▁ded	-6794
▁sechs	-6795
▁Milliar	-6796
▁fordern	-6797
▁günst	-6798
▁Doppel	-6799
▁36	-6800
▁unbed	-6801
▁relating	-6802
▁Directive	-6803
üst	-6804
▁Airport	-6805
estic	-6806
▁caused	-6807
▁circum	-6808
bus	-6809
pective	-6810
▁anything	-6811
▁Regierungs	-6812
▁Anstr	-6813
leistung	-6814
▁recon	-6815
▁cert	-6816
▁campaign	-6817
gruppe	-6818
▁überhaupt	-6819
▁Lassen	-6820
urb	-6821
▁players	-6822
▁Herz	-6823
▁charm	-6824
▁swimming	-6825
▁offiz	-6826
▁PH	-6827
▁critic	-6828
▁counter	-6829
▁mitt	-6830
nungen	-6831
verfahren	-6832
▁Gran	-6833
▁decor	-6834
▁gewesen	-6835
schreit	-6836
▁Erd	-6837
altungen	-6838
▁transparent	-6839
schö	-6840
hafte	-6841
▁Verhält	-6842
▁languages	-6843
▁mü	-6844
▁erfüllen	-6845
pp	-6846
▁Praxis	-6847
▁Analy	-6848
▁begin	-6849
frastruktur	-6850
▁Eas	-6851
iant	-6852
▁usw	-6853
▁accordance	-6854
▁erklärt	-6855
▁zahlreichen	-6856
▁advert	-6857
▁urg	-6858
atform	-6859
▁email	-6860
aint	-6861
IA	-6862
▁Dav	-6863
▁probably	-6864
▁mensch	-6865
▁warum	-6866
atterin	-6867
hold	-6868
▁Spanien	-6869
▁tourist	-6870
orte	-6871
▁technologies	-6872
▁berücksichtigt	-6873
lass	-6874
▁folgen	-6875
ordination	-6876
▁Verteid	-6877
fläche	-6878
▁News	-6879
▁richtige	-6880
▁Lang	-6881
▁gerecht	-6882
▁Mess	-6883
itch	-6884
▁Berat	-6885
▁chance	-6886
▁remov	-6887
▁größer	-6888
▁Firmen	-6889
teuer	-6890
▁Fäh	-6891
iding	-6892
▁stimmen	-6893
▁po	-6894
▁sav	-6895
▁interested	-6896
▁farmers	-6897
▁Hil	-6898
▁bur	-6899
▁welches	-6900
▁Miss	-6901
ola	-6902
▁cast	-6903
▁Terrorismus	-6904
fun	-6905
▁Conference	-6906
poses	-6907
▁rapid	-6908
▁jen	-6909
▁Finanzierung	-6910
▁initial	-6911
▁Swiss	-6912
▁release	-6913
▁Frankf	-6914
▁ehem	-6915
▁eingeb	-6916
▁sämt	-6917
ius	-6918
igation	-6919
▁While	-6920
▁Google	-6921
▁TH	-6922
▁accession	-6923
▁voting	-6924
▁disp	-6925
US	-6926
▁lands	-6927
▁wach	-6928
itation	-6929
▁Aspekte	-6930
▁Adresse	-6931
▁Tal	-6932
▁worldwide	-6933
ufe	-6934
▁Sterne	-6935
gy	-6936
ga	-6937
uded	-6938
▁games	-6939
▁methods	-6940
▁compl	-6941
▁Vergangenheit	-6942
▁ones	-6943
▁größte	-6944
▁jeweiligen	-6945
▁Out	-6946
▁rele	-6947
ulated	-6948
▁scientific	-6949
▁historischen	-6950
PS	-6951
▁extent	-6952
▁track	-6953
▁Garten	-6954
▁Winter	-6955
▁valid	-6956
legten	-6957
▁symbol	-6958
▁wählen	-6959
▁einheit	-6960
▁Gre	-6961
▁began	-6962
ällt	-6963
▁stets	-6964
sto	-6965
position	-6966
enze	-6967
utive	-6968
▁fire	-6969
▁Viele	-6970
▁150	-6971
▁selection	-6972
▁Telefon	-6973
▁challenge	-6974
▁Vergleich	-6975
▁Sonder	-6976
ffizienz	-6977
▁walking	-6978
▁bill	-6979
▁Zweitens	-6980
▁Gene	-6981
▁minute	-6982
▁respond	-6983
ta	-6984
▁verpflichtet	-6985
zeiten	-6986
▁staat	-6987
▁UK	-6988
▁adopt	-6989
karte	-6990
▁fine	-6991
▁wanted	-6992
wie	-6993
▁NAT	-6994
▁Ord	-6995
▁sort	-6996
▁images	-6997
▁coup	-6998
izes	-6999
▁bald	-7000
▁betreff	-7001
oke	-7002
wan	-7003
▁motor	-7004
▁Opfer	-7005
LA	-7006
vollen	-7007
▁Schritte	-7008
▁außerhalb	-7009
zi	-7010
▁arrange	-7011
▁tick	-7012
▁apprec	-7013
▁Hoff	-7014
▁195	-7015
ifically	-7016
▁insp	-7017
▁modernen	-7018
▁sectors	-7019
▁candid	-7020
▁reflect	-7021
▁zumindest	-7022
omb	-7023
▁expert	-7024
asc	-7025
▁technischen	-7026
▁Mc	-7027
▁befür	-7028
ples	-7029
itten	-7030
▁Doll	-7031
▁beträ	-7032
▁screen	-7033
▁Ire	-7034
▁Code	-7035
▁businesses	-7036
▁visitors	-7037
▁Zivil	-7038
▁Sen	-7039
grenz	-7040
▁club	-7041
ichtlich	-7042
▁seines	-7043
▁Angelegenheit	-7044
▁Prem	-7045
▁John	-7046
oon	-7047
▁verantwortlich	-7048
▁Tier	-7049
▁blo	-7050
ränkt	-7051
▁remember	-7052
view	-7053
▁hour	-7054
▁elegant	-7055
▁gemein	-7056
▁Vertrauen	-7057
▁spezif	-7058
▁Voll	-7059
▁Flex	-7060
abkommen	-7061
▁Chinese	-7062
▁exerc	-7063
stitutional	-7064
▁lies	-7065
▁tät	-7066
figur	-7067
▁verkauf	-7068
▁Dann	-7069
▁fant	-7070
▁Ireland	-7071
▁lost	-7072
▁sil	-7073
▁kam	-7074
ktive	-7075
atalog	-7076
▁annual	-7077
kret	-7078
▁vollständig	-7079
▁player	-7080
mand	-7081
▁absolutely	-7082
▁Nun	-7083
▁Gold	-7084
▁Dazu	-7085
▁persönlichen	-7086
hilfen	-7087
▁separate	-7088
▁heav	-7089
▁powers	-7090
▁despite	-7091
▁genu	-7092
▁Parteien	-7093
▁Mün	-7094
▁unten	-7095
▁raised	-7096
▁trip	-7097
fence	-7098
▁accepted	-7099
▁heutigen	-7100
iell	-7101
▁Cy	-7102
▁trying	-7103
▁verab	-7104
▁deutschen	-7105
izing	-7106
▁Chance	-7107
▁season	-7108
▁genug	-7109
▁Gespr	-7110
▁processing	-7111
enh	-7112
▁enorm	-7113
▁Konzept	-7114
▁kitchen	-7115
▁prü	-7116
▁erlaubt	-7117
date	-7118
▁Islam	-7119
▁Schne	-7120
▁Allerdings	-7121
zul	-7122
▁influence	-7123
quem	-7124
▁affe	-7125
▁schützen	-7126
▁manufactur	-7127
▁ausschließlich	-7128
akte	-7129
▁Bur	-7130
meer	-7131
ämpfen	-7132
tempt	-7133
▁Distr	-7134
▁Russian	-7135
▁Angelegenheiten	-7136
▁Falls	-7137
▁Schwierigkeiten	-7138
barer	-7139
▁Prä	-7140
▁Landwir	-7141
▁Stellen	-7142
▁Drit	-7143
ded	-7144
▁ethn	-7145
▁crimin	-7146
▁hot	-7147
▁folgt	-7148
▁listen	-7149
▁Mitte	-7150
▁Österreich	-7151
sam	-7152
künft	-7153
▁substant	-7154
▁strategic	-7155
ziert	-7156
RE	-7157
verage	-7158
▁honour	-7159
ückt	-7160
▁fields	-7161
▁Secondly	-7162
▁erinnern	-7163
▁Einrichtung	-7164
▁erwartet	-7165
pool	-7166
.3	-7167
▁anders	-7168
losigkeit	-7169
▁Einwander	-7170
▁Soll	-7171
ML	-7172
▁demands	-7173
kaufs	-7174
sätze	-7175
▁Only	-7176
ym	-7177
▁bessere	-7178
werte	-7179
▁Ihres	-7180
▁scale	-7181
▁cred	-7182
▁cell	-7183
▁alone	-7184
▁Einige	-7185
erkennung	-7186
▁Hinsicht	-7187
▁vital	-7188
▁changed	-7189
raten	-7190
▁effiz	-7191
back	-7192
▁angemessen	-7193
lemente	-7194
▁namely	-7195
▁Krank	-7196
▁borders	-7197
▁anerk	-7198
▁Generation	-7199
▁stärker	-7200
▁yourself	-7201
▁resort	-7202
▁Vier	-7203
ente	-7204
▁dan	-7205
affe	-7206
▁menu	-7207
▁slow	-7208
zusetzen	-7209
▁Annahme	-7210
▁getroffen	-7211
scht	-7212
akes	-7213
▁innovation	-7214
▁italien	-7215
▁privaten	-7216
▁Amb	-7217
▁overall	-7218
gesetz	-7219
▁Georg	-7220
chtet	-7221
gere	-7222
▁ris	-7223
anda	-7224
▁falls	-7225
▁folgenden	-7226
handel	-7227
gehend	-7228
hers	-7229
▁rom	-7230
ighted	-7231
▁übernehmen	-7232
▁box	-7233
▁claim	-7234
▁Eigent	-7235
▁verurs	-7236
▁representatives	-7237
zulegen	-7238
▁Liberal	-7239
▁earl	-7240
▁calls	-7241
ätzlich	-7242
gült	-7243
▁award	-7244
▁begrüßen	-7245
▁gesetz	-7246
ids	-7247
immern	-7248
▁hol	-7249
▁worked	-7250
engungen	-7251
▁Solidarität	-7252
▁Moreover	-7253
▁negative	-7254
▁Erk	-7255
▁zukünft	-7256
▁allgemeinen	-7257
▁bitten	-7258
▁Heim	-7259
▁fish	-7260
▁wrong	-7261
mel	-7262
▁running	-7263
▁evening	-7264
pack	-7265
▁Ausgang	-7266
▁automatisch	-7267
▁Karte	-7268
indungen	-7269
▁Christian	-7270
▁Card	-7271
vorsitz	-7272
book	-7273
▁proceed	-7274
look	-7275
▁gesehen	-7276
▁fresh	-7277
▁occup	-7278
▁photo	-7279
▁vertra	-7280
▁Archite	-7281
abr	-7282
▁brand	-7283
▁Arbeitsplätze	-7284
▁Bran	-7285
▁Mer	-7286
▁flexible	-7287
▁target	-7288
▁white	-7289
▁traffic	-7290
ielt	-7291
▁expressed	-7292
▁Sam	-7293
▁datab	-7294
▁autom	-7295
▁NATO	-7296
▁angeboten	-7297
▁initiatives	-7298
tert	-7299
▁angene	-7300
attle	-7301
▁beginnen	-7302
▁intended	-7303
▁Verfassung	-7304
▁natür	-7305
ulations	-7306
aters	-7307
▁zweit	-7308
wel	-7309
▁Stil	-7310
mus	-7311
▁setzt	-7312
sprechen	-7313
enty	-7314
▁heard	-7315
▁Its	-7316
▁Dre	-7317
▁wiederhol	-7318
▁ehemal	-7319
▁Bay	-7320
konom	-7321
eignet	-7322
aries	-7323
▁simpl	-7324
▁zudem	-7325
▁terrace	-7326
▁talking	-7327
QL	-7328
▁deine	-7329
▁Antrag	-7330
▁placed	-7331
bezieh	-7332
IV	-7333
gruppen	-7334
bum	-7335
rogen	-7336
▁offens	-7337
▁darstellt	-7338
▁Afghanistan	-7339
▁compos	-7340
ruption	-7341
▁mainly	-7342
krise	-7343
▁Reserv	-7344
▁IM	-7345
▁Hostels	-7346
▁plans	-7347
▁Prozent	-7348
▁endlich	-7349
isely	-7350
▁love	-7351
▁Kapital	-7352
▁Öl	-7353
▁Bade	-7354
▁committed	-7355
▁beide	-7356
▁spect	-7357
lymp	-7358
▁Trotz	-7359
ystemen	-7360
▁Organisationen	-7361
▁Eind	-7362
itts	-7363
▁Wissenschaft	-7364
ildet	-7365
▁Freiz	-7366
▁opening	-7367
▁bestimmt	-7368
▁goal	-7369
▁letzte	-7370
▁eindeutig	-7371
▁Leute	-7372
▁Sitzung	-7373
▁Dub	-7374
▁Kauf	-7375
▁restrict	-7376
ördert	-7377
▁ability	-7378
▁tal	-7379
▁Mex	-7380
▁Hause	-7381
vis	-7382
▁cities	-7383
wes	-7384
▁Glaub	-7385
▁planning	-7386
iente	-7387
▁anc	-7388
▁länd	-7389
▁approved	-7390
amin	-7391
▁Ausschuß	-7392
▁Anges	-7393
▁element	-7394
▁concentr	-7395
▁tit	-7396
zeichen	-7397
▁Obwohl	-7398
erap	-7399
▁feed	-7400
▁sinn	-7401
ruit	-7402
▁Agre	-7403
▁gere	-7404
▁People	-7405
▁dipl	-7406
ibl	-7407
▁Ev	-7408
▁black	-7409
▁Schwer	-7410
inens	-7411
▁Erstens	-7412
▁touch	-7413
uses	-7414
▁1990	-7415
▁Haushalt	-7416
nel	-7417
▁Roma	-7418
eg	-7419
house	-7420
▁Einfluss	-7421
▁Milliarden	-7422
▁#	-7423
▁bemü	-7424
▁dringend	-7425
▁Gesamt	-7426
ita	-7427
▁Verpflichtungen	-7428
▁Ang	-7429
▁Acht	-7430
▁Licht	-7431
bringen	-7432
80	-7433
▁Qualitäts	-7434
▁entgegen	-7435
▁confidence	-7436
▁Rh	-7437
▁Gipfel	-7438
ustausch	-7439
▁bege	-7440
▁improved	-7441
▁jem	-7442
▁Arab	-7443
▁affected	-7444
▁Kriterien	-7445
▁Kompromiss	-7446
sb	-7447
▁families	-7448
standing	-7449
▁Costa	-7450
stoffe	-7451
▁benutzt	-7452
▁comments	-7453
▁Überwach	-7454
▁cas	-7455
▁students	-7456
▁Agenda	-7457
▁komfort	-7458
▁Systeme	-7459
▁intell	-7460
▁Ja	-7461
▁cos	-7462
▁remind	-7463
▁Tätigkeit	-7464
▁God	-7465
▁Verhalten	-7466
itzt	-7467
▁cohesion	-7468
▁Verwaltung	-7469
▁länger	-7470
auern	-7471
▁plus	-7472
▁Autom	-7473
▁automatically	-7474
▁Falle	-7475
▁feature	-7476
▁Nachfol	-7477
▁Anstrengungen	-7478
▁suitable	-7479
▁Schiff	-7480
▁umfang	-7481
▁phone	-7482
ories	-7483
▁02	-7484
idelines	-7485
gebiet	-7486
undred	-7487
▁verme	-7488
▁administrative	-7489
älter	-7490
▁belieb	-7491
▁delivery	-7492
hood	-7493
▁inn	-7494
▁Elekt	-7495
▁Ra	-7496
▁Waren	-7497
▁currency	-7498
▁Cr	-7499
board	-7500
▁fear	-7501
▁gegr	-7502
▁reag	-7503
angs	-7504
▁decide	-7505
ibly	-7506
▁genannt	-7507
schlossen	-7508
uk	-7509
pliz	-7510
▁jun	-7511
▁größere	-7512
▁Zustimmung	-7513
▁collection	-7514
▁justice	-7515
▁moderne	-7516
zeigen	-7517
▁genutzt	-7518
▁mill	-7519
▁irgend	-7520
▁kaum	-7521
▁unbedingt	-7522
▁Grie	-7523
bourg	-7524
▁Lab	-7525
▁oben	-7526
▁zusätzliche	-7527
▁Abschluss	-7528
▁Funktionen	-7529
tritt	-7530
hrte	-7531
▁Holz	-7532
▁conclusion	-7533
ión	-7534
grams	-7535
agraph	-7536
▁Boden	-7537
▁chann	-7538
▁eingehen	-7539
▁banks	-7540
▁entspricht	-7541
▁Garant	-7542
▁bilden	-7543
rete	-7544
▁Wann	-7545
▁circumstances	-7546
itory	-7547
▁reduced	-7548
ores	-7549
▁usually	-7550
▁emb	-7551
▁provision	-7552
ION	-7553
aschine	-7554
▁laws	-7555
▁Sing	-7556
▁bezahl	-7557
▁Idee	-7558
▁emissions	-7559
▁überzeugt	-7560
anc	-7561
ounge	-7562
▁elektron	-7563
▁vorgelegt	-7564
gers	-7565
▁Haft	-7566
▁Wik	-7567
▁400	-7568
▁attempt	-7569
▁supports	-7570
▁Friedens	-7571
▁extensive	-7572
ändigen	-7573
▁Immobil	-7574
▁gesetzt	-7575
▁Glück	-7576
▁Liz	-7577
quate	-7578
ifying	-7579
▁Anerkennung	-7580
alled	-7581
▁IC	-7582
▁administration	-7583
▁constit	-7584
▁priorities	-7585
▁Vereinbarung	-7586
▁entschieden	-7587
▁increasingly	-7588
▁stabil	-7589
▁poll	-7590
▁entstehen	-7591
▁kürz	-7592
▁Besonder	-7593
▁reforms	-7594
▁critical	-7595
▁Cze	-7596
verläss	-7597
▁2020	-7598
▁whom	-7599
▁coordin	-7600
IF	-7601
RA	-7602
▁gek	-7603
▁zufrieden	-7604
▁Partei	-7605
▁contribute	-7606
▁Inhalte	-7607
▁says	-7608
▁unterb	-7609
▁militär	-7610
▁Wahlen	-7611
▁angegeben	-7612
▁Bos	-7613
▁Nations	-7614
▁protected	-7615
▁Körper	-7616
▁Cle	-7617
▁htt	-7618
▁Zwischen	-7619
▁Produkten	-7620
▁erkennen	-7621
▁powerful	-7622
▁Prov	-7623
▁platform	-7624
▁electronic	-7625
▁Us	-7626
▁herz	-7627
▁speaking	-7628
▁speziell	-7629
ago	-7630
▁competitive	-7631
etten	-7632
▁medic	-7633
▁Tab	-7634
endence	-7635
▁Ident	-7636
▁Zeichen	-7637
▁regime	-7638
▁client	-7639
▁mindestens	-7640
laufen	-7641
▁structural	-7642
▁vorsch	-7643
▁sources	-7644
▁Besucher	-7645
▁é	-7646
▁ec	-7647
▁mm	-7648
▁His	-7649
wenden	-7650
SS	-7651
rieb	-7652
▁wesentlich	-7653
fu	-7654
▁berücksichtigen	-7655
▁Any	-7656
▁Bestand	-7657
▁Schlaf	-7658
▁herunter	-7659
▁SP	-7660
▁1995	-7661
▁scope	-7662
▁infrastructure	-7663
DE	-7664
▁Palestin	-7665
▁Ann	-7666
▁Ander	-7667
▁Netzwerk	-7668
▁Dol	-7669
▁rise	-7670
▁ensuring	-7671
▁Fot	-7672
▁Waffen	-7673
ürger	-7674
▁danke	-7675
▁victims	-7676
▁Sea	-7677
▁encourage	-7678
reise	-7679
▁Tool	-7680
▁Ern	-7681
40	-7682
▁verfügbar	-7683
▁voraus	-7684
▁Tar	-7685
prin	-7686
▁anz	-7687
▁Schn	-7688
▁auszu	-7689
▁Nutzen	-7690
üge	-7691
▁crime	-7692
▁Koordin	-7693
▁tabled	-7694
▁Bi	-7695
▁hochwert	-7696
▁Each	-7697
▁aktuelle	-7698
▁mic	-7699
▁Sprachen	-7700
zentrum	-7701
▁effectively	-7702
▁participation	-7703
▁manner	-7704
▁mehreren	-7705
▁EG	-7706
fälle	-7707
▁Frankfurt	-7708
igran	-7709
omet	-7710
artigen	-7711
▁Hintergrund	-7712
▁fellow	-7713
▁gezeigt	-7714
▁Straße	-7715
iler	-7716
used	-7717
staaten	-7718
▁unemployment	-7719
▁Bemerk	-7720
▁specifically	-7721
▁Sü	-7722
▁Salz	-7723
▁wonderful	-7724
▁introduced	-7725
▁ship	-7726
▁Aktions	-7727
▁Abs	-7728
▁Richtlinien	-7729
▁Konflikt	-7730
▁Sektor	-7731
▁bewusst	-7732
iums	-7733
▁Sand	-7734
▁Most	-7735
▁erreich	-7736
uly	-7737
▁played	-7738
▁Homepage	-7739
▁Regional	-7740
▁demokratischen	-7741
▁--	-7742
▁served	-7743
▁agriculture	-7744
elte	-7745
▁quant	-7746
di	-7747
endet	-7748
▁supp	-7749
▁Lo	-7750
▁Durchführung	-7751
▁installation	-7752
▁Anspruch	-7753
▁Serb	-7754
▁detailed	-7755
▁Assoc	-7756
haften	-7757
▁fert	-7758
▁Olymp	-7759
ampag	-7760
▁entsprechende	-7761
ongs	-7762
▁temper	-7763
▁Spr	-7764
daten	-7765
▁getting	-7766
▁Board	-7767
▁animals	-7768
▁hinweisen	-7769
▁Mitteilung	-7770
▁prem	-7771
benen	-7772
▁functions	-7773
tete	-7774
▁sitting	-7775
iano	-7776
▁covered	-7777
afft	-7778
reiber	-7779
▁church	-7780
▁larger	-7781
▁motion	-7782
ifizierung	-7783
▁mix	-7784
▁Tun	-7785
▁Mensch	-7786
▁pleasant	-7787
▁Power	-7788
struktur	-7789
ästinens	-7790
▁Som	-7791
gewöhn	-7792
▁hundred	-7793
▁Nah	-7794
▁Osten	-7795
wirken	-7796
▁institutional	-7797
▁rechts	-7798
▁purposes	-7799
▁Standards	-7800
ideos	-7801
▁Czech	-7802
▁Vorteile	-7803
▁Verfass	-7804
▁referred	-7805
▁camera	-7806
▁harm	-7807
▁zentral	-7808
▁Pack	-7809
▁Komfort	-7810
pass	-7811
odies	-7812
▁reception	-7813
nes	-7814
▁Mio	-7815
▁Kind	-7816
äne	-7817
arus	-7818
▁dedic	-7819
▁nachdem	-7820
mack	-7821
▁wert	-7822
▁session	-7823
▁luxur	-7824
ingu	-7825
▁erwähnt	-7826
last	-7827
▁gesprochen	-7828
▁nationale	-7829
▁managed	-7830
▁Schaden	-7831
ils	-7832
▁Technologien	-7833
▁Stabilität	-7834
▁Station	-7835
▁beschlossen	-7836
▁Beitritts	-7837
▁summit	-7838
▁nöt	-7839
arten	-7840
▁auth	-7841
▁arm	-7842
▁wood	-7843
▁rural	-7844
án	-7845
▁watch	-7846
▁iP	-7847
▁exactly	-7848
▁glauben	-7849
▁Cast	-7850
▁angesprochen	-7851
▁dead	-7852
▁Fakt	-7853
äden	-7854
gerungen	-7855
ologischen	-7856
▁construct	-7857
▁India	-7858
▁eingerichtet	-7859
▁euch	-7860
anlagen	-7861
▁serve	-7862
zeichnen	-7863
▁Fischerei	-7864
▁Einsch	-7865
entwicklung	-7866
▁Paul	-7867
▁besonderen	-7868
ündung	-7869
▁aimed	-7870
öm	-7871
▁Wellness	-7872
amber	-7873
▁domin	-7874
esents	-7875
▁ged	-7876
▁discussed	-7877
urses	-7878
oted	-7879
▁geeignet	-7880
cers	-7881
▁entry	-7882
ras	-7883
aktiv	-7884
▁http	-7885
▁occur	-7886
▁Schlüssel	-7887
▁kontroll	-7888
▁February	-7889
▁mand	-7890
▁Indeed	-7891
▁According	-7892
▁competen	-7893
▁deg	-7894
hotel	-7895
▁Infrastruktur	-7896
▁vac	-7897
letter	-7898
itzerland	-7899
▁Great	-7900
▁spacious	-7901
▁interpret	-7902
▁selected	-7903
▁Paket	-7904
idential	-7905
▁benutzen	-7906
kom	-7907
zieht	-7908
▁sicherzustellen	-7909
▁paper	-7910
▁akzeptieren	-7911
▁Kommunikation	-7912
▁Av	-7913
usions	-7914
▁Aufnahme	-7915
▁represents	-7916
▁Nahr	-7917
hle	-7918
▁siehe	-7919
▁3.	-7920
▁Slov	-7921
▁police	-7922
▁stated	-7923
punkte	-7924
udem	-7925
▁Top	-7926
▁Turk	-7927
▁radio	-7928
▁conver	-7929
▁precisely	-7930
▁Bew	-7931
▁becoming	-7932
▁wants	-7933
▁Apartments	-7934
▁Liber	-7935
▁discussions	-7936
▁einzus	-7937
▁Other	-7938
▁Agreement	-7939
▁Ausgaben	-7940
ibilität	-7941
▁Anwendungen	-7942
äher	-7943
unkten	-7944
isine	-7945
▁developments	-7946
ael	-7947
iat	-7948
las	-7949
aming	-7950
▁Then	-7951
▁founded	-7952
schuld	-7953
▁freuen	-7954
▁facilit	-7955
▁Why	-7956
▁Luxem	-7957
▁erzielt	-7958
▁Prote	-7959
fahrens	-7960
▁Schengen	-7961
agegen	-7962
▁ausgew	-7963
▁Griechen	-7964
▁Zunächst	-7965
▁wahrscheinlich	-7966
▁mil	-7967
▁budgetary	-7968
▁metres	-7969
▁provider	-7970
▁color	-7971
▁Suche	-7972
▁Dollar	-7973
▁Irak	-7974
▁ehr	-7975
▁sold	-7976
▁Schließlich	-7977
führer	-7978
▁listed	-7979
▁verz	-7980
▁Click	-7981
▁coffe	-7982
▁inside	-7983
▁Rese	-7984
enhagen	-7985
▁bestehenden	-7986
▁convin	-7987
▁Reformen	-7988
▁Motor	-7989
▁centr	-7990
▁shower	-7991
▁forget	-7992
fiz	-7993
äuser	-7994
▁assessment	-7995
▁Asia	-7996
▁otherwise	-7997
ads	-7998
laus	-7999
▁Policy	-8000
▁Switzerland	-8001
wasser	-8002
▁remark	-8003
▁expens	-8004
▁Vorbereit	-8005
▁zug	-8006
▁Klein	-8007
▁medical	-8008
idents	-8009
▁Einrichtungen	-8010
aria	-8011
▁thousands	-8012
▁Zudem	-8013
▁winter	-8014
▁risks	-8015
▁Unterkategorien	-8016
▁ersch	-8017
▁geändert	-8018
▁door	-8019
ida	-8020
▁programs	-8021
▁hands	-8022
▁freien	-8023
▁opened	-8024
▁enterprises	-8025
▁bequem	-8026
▁festgelegt	-8027
▁Rooms	-8028
▁Haltung	-8029
▁prüfen	-8030
▁corresp	-8031
imb	-8032
ala	-8033
▁Umst	-8034
bü	-8035
▁Fle	-8036
mitglie	-8037
prüfung	-8038
▁globalen	-8039
▁expand	-8040
atively	-8041
▁actual	-8042
▁Ky	-8043
▁Check	-8044
▁Middle	-8045
▁hoffen	-8046
▁zuletzt	-8047
▁Mittelmeer	-8048
uber	-8049
▁möglicherweise	-8050
▁regret	-8051
▁notwendigen	-8052
▁umgesetzt	-8053
▁Milit	-8054
▁format	-8055
▁expected	-8056
preis	-8057
▁Po	-8058
▁linked	-8059
ensions	-8060
ING	-8061
▁earlier	-8062
▁closely	-8063
▁Meter	-8064
wegung	-8065
▁introduction	-8066
▁exclusive	-8067
▁Industr	-8068
▁votes	-8069
▁guidelines	-8070
▁scen	-8071
plant	-8072
schiede	-8073
▁erfüllt	-8074
▁trust	-8075
ura	-8076
▁anderes	-8077
achtet	-8078
▁Break	-8079
▁Kenntnis	-8080
uropa	-8081
▁Wald	-8082
▁Found	-8083
ücke	-8084
▁graph	-8085
amente	-8086
▁impress	-8087
▁jederzeit	-8088
▁intend	-8089
▁ISO	-8090
▁süd	-8091
werke	-8092
ault	-8093
▁ST	-8094
▁Haup	-8095
▁beds	-8096
▁Research	-8097
▁amerikanischen	-8098
▁öffentlich	-8099
▁finanziellen	-8100
üste	-8101
▁Monate	-8102
see	-8103
ulieren	-8104
▁dienen	-8105
▁spread	-8106
system	-8107
▁followed	-8108
▁Ausbildung	-8109
▁beziehen	-8110
▁defend	-8111
▁Fischere	-8112
▁Band	-8113
▁fahren	-8114
▁electric	-8115
▁ergreifen	-8116
ania	-8117
ureau	-8118
▁orient	-8119
IG	-8120
itiveness	-8121
▁territor	-8122
▁wünschen	-8123
▁likely	-8124
IE	-8125
▁Charakter	-8126
▁map	-8127
jected	-8128
orea	-8129
▁buildings	-8130
▁marketing	-8131
▁degree	-8132
▁unters	-8133
ishes	-8134
▁Fonds	-8135
▁weap	-8136
▁supporting	-8137
▁save	-8138
▁Beschäftigungs	-8139
▁bott	-8140
SP	-8141
mas	-8142
▁operations	-8143
▁schwierig	-8144
azz	-8145
ham	-8146
▁picture	-8147
▁discrimination	-8148
lying	-8149
▁lösen	-8150
asts	-8151
▁Arten	-8152
▁comment	-8153
▁Installation	-8154
▁Währungs	-8155
▁jene	-8156
rum	-8157
lebr	-8158
▁Status	-8159
ungsantrag	-8160
losen	-8161
▁1,	-8162
▁Vielfalt	-8163
▁ries	-8164
▁gleiche	-8165
▁defined	-8166
▁Dienste	-8167
werten	-8168
▁playing	-8169
bad	-8170
▁vermeiden	-8171
▁improving	-8172
▁immigration	-8173
▁Prag	-8174
▁Rein	-8175
denken	-8176
▁resist	-8177
▁lesen	-8178
▁Fore	-8179
▁duty	-8180
▁networks	-8181
▁telephone	-8182
▁Zweck	-8183
▁braucht	-8184
▁ausger	-8185
lim	-8186
▁speech	-8187
▁Innovation	-8188
icks	-8189
▁Bec	-8190
zieren	-8191
▁Kindern	-8192
▁ade	-8193
po	-8194
▁uses	-8195
kap	-8196
▁tempor	-8197
vements	-8198
▁Büro	-8199
▁Wege	-8200
icts	-8201
▁scr	-8202
gets	-8203
▁empfehl	-8204
▁verbessert	-8205
umm	-8206
▁gemüt	-8207
stieg	-8208
▁understanding	-8209
ickt	-8210
▁detail	-8211
▁einzu	-8212
▁Lehr	-8213
▁suppl	-8214
▁considerable	-8215
▁tourism	-8216
itter	-8217
▁compens	-8218
▁03	-8219
▁acqu	-8220
▁EL	-8221
▁stattfinden	-8222
rahmen	-8223
▁sicherlich	-8224
▁jeweils	-8225
▁EAD	-8226
reiten	-8227
▁Stimme	-8228
▁technische	-8229
aves	-8230
▁Fen	-8231
▁Rec	-8232
▁compar	-8233
▁Maschinen	-8234
brit	-8235
freiheit	-8236
levision	-8237
▁darunter	-8238
▁sho	-8239
▁cuisine	-8240
▁Sinn	-8241
▁components	-8242
▁frag	-8243
onym	-8244
etze	-8245
ometer	-8246
▁accomp	-8247
▁Menge	-8248
▁angezeigt	-8249
gment	-8250
▁Ul	-8251
▁convenient	-8252
▁explo	-8253
▁Sehens	-8254
▁Moment	-8255
▁gewünsch	-8256
▁animal	-8257
▁Webseite	-8258
▁gern	-8259
▁went	-8260
kunfts	-8261
▁Kol	-8262
▁Greece	-8263
▁purchase	-8264
▁fallen	-8265
▁Grundsatz	-8266
▁substantial	-8267
lar	-8268
▁effizient	-8269
▁Kal	-8270
▁Bruss	-8271
▁entweder	-8272
ulierung	-8273
▁gelangen	-8274
atik	-8275
ktiven	-8276
▁properly	-8277
roh	-8278
▁übernachten	-8279
inu	-8280
▁facing	-8281
▁multil	-8282
▁photograph	-8283
▁alte	-8284
▁Frem	-8285
▁Super	-8286
▁Verwaltungs	-8287
▁experts	-8288
UN	-8289
▁Name	-8290
▁193	-8291
▁presence	-8292
▁Belarus	-8293
iques	-8294
wirk	-8295
ervice	-8296
▁items	-8297
▁Main	-8298
▁brief	-8299
▁entit	-8300
gencies	-8301
▁Wien	-8302
▁Street	-8303
▁typical	-8304
konferenz	-8305
▁Vill	-8306
igem	-8307
umin	-8308
▁Economic	-8309
▁destro	-8310
▁Leistungen	-8311
britann	-8312
▁debt	-8313
▁Tas	-8314
▁coffee	-8315
▁income	-8316
▁gave	-8317
▁Never	-8318
▁Abschließend	-8319
▁erzielen	-8320
▁Guest	-8321
ütze	-8322
▁Bush	-8323
▁delay	-8324
▁Februar	-8325
▁Brussels	-8326
▁abst	-8327
▁alloc	-8328
▁sized	-8329
klus	-8330
▁abzu	-8331
▁Arbeiten	-8332
▁Over	-8333
▁Instrumente	-8334
bruch	-8335
istence	-8336
▁born	-8337
itze	-8338
▁teilweise	-8339
leitung	-8340
▁ergän	-8341
▁GN	-8342
▁sand	-8343
▁Wirk	-8344
▁Berichte	-8345
▁fisheries	-8346
chmal	-8347
ennis	-8348
▁Forderung	-8349
▁hosp	-8350
▁Teile	-8351
▁besuchen	-8352
▁presidency	-8353
▁ausdrücklich	-8354
▁PHP	-8355
,00	-8356
▁entirely	-8357
▁generally	-8358
▁shops	-8359
▁Atlant	-8360
atoren	-8361
wohner	-8362
▁Black	-8363
gebaut	-8364
möglich	-8365
▁strict	-8366
▁Kenn	-8367
▁mobil	-8368
▁plants	-8369
hop	-8370
gemeine	-8371
▁coordination	-8372
either	-8373
▁dealing	-8374
▁incor	-8375
partner	-8376
▁Völker	-8377
▁Poland	-8378
▁ständig	-8379
▁erstellt	-8380
▁Roy	-8381
▁Casino	-8382
▁stimme	-8383
▁combat	-8384
olden	-8385
▁organisation	-8386
▁ging	-8387
▁welcher	-8388
▁gekommen	-8389
▁tack	-8390
▁Analyse	-8391
stelle	-8392
▁Sow	-8393
▁untern	-8394
▁Because	-8395
▁refuge	-8396
▁Sach	-8397
▁grenz	-8398
prechen	-8399
▁relate	-8400
▁erhöhen	-8401
▁Wander	-8402
▁Grenz	-8403
▁Regelung	-8404
▁Jetzt	-8405
▁Act	-8406
▁sagt	-8407
▁Plen	-8408
▁recognis	-8409
ora	-8410
▁sole	-8411
▁Heil	-8412
▁dramat	-8413
▁difficulties	-8414
▁competitiveness	-8415
▁Mitgliedstaat	-8416
▁Health	-8417
▁sauber	-8418
▁Forum	-8419
▁permanent	-8420
▁Initiativen	-8421
▁Bereit	-8422
▁nieder	-8423
▁calc	-8424
▁Abgeordnete	-8425
▁Madrid	-8426
▁Vereinten	-8427
orr	-8428
scher	-8429
▁wollte	-8430
▁authority	-8431
portion	-8432
▁adjust	-8433
▁kommenden	-8434
spolitik	-8435
▁Lib	-8436
▁betonen	-8437
räft	-8438
▁average	-8439
▁Phil	-8440
▁stärk	-8441
▁peaceful	-8442
▁Eisen	-8443
▁Klimawand	-8444
▁machines	-8445
▁informieren	-8446
▁funktioniert	-8447
▁Origin	-8448
▁Großbritann	-8449
ae	-8450
uting	-8451
▁district	-8452
▁paragraph	-8453
▁moral	-8454
▁criminal	-8455
▁thinking	-8456
CH	-8457
ikanische	-8458
vey	-8459
rägen	-8460
▁financing	-8461
inary	-8462
▁psych	-8463
▁elimin	-8464
erstellen	-8465
▁komplex	-8466
uit	-8467
▁prä	-8468
▁ober	-8469
▁willing	-8470
▁Mö	-8471
▁Rezept	-8472
▁Environment	-8473
union	-8474
▁percent	-8475
ünen	-8476
▁Mir	-8477
▁lernen	-8478
▁bear	-8479
gal	-8480
▁Non	-8481
▁trave	-8482
▁wären	-8483
sprü	-8484
▁verur	-8485
▁zuvor	-8486
▁Leider	-8487
▁Kurz	-8488
▁Mount	-8489
maß	-8490
▁Unfortunately	-8491
ameter	-8492
▁klare	-8493
▁Unabhäng	-8494
▁russ	-8495
üg	-8496
▁vehicles	-8497
▁meetings	-8498
▁handeln	-8499
▁fixed	-8500
▁suc	-8501
▁Pakistan	-8502
ova	-8503
▁Konz	-8504
▁multip	-8505
▁fit	-8506
lisch	-8507
▁applies	-8508
▁informed	-8509
▁Leistungs	-8510
▁Veränderungen	-8511
▁Engagement	-8512
▁Under	-8513
ünden	-8514
▁Zeiten	-8515
▁EADS	-8516
▁Vielen	-8517
▁fragen	-8518
oring	-8519
gewicht	-8520
fachen	-8521
▁Mechan	-8522
▁Vo	-8523
▁Note	-8524
▁Zeitraum	-8525
▁lif	-8526
▁Verständ	-8527
lad	-8528
schul	-8529
▁gradu	-8530
▁Angaben	-8531
▁Vien	-8532
füll	-8533
▁consideration	-8534
▁imposs	-8535
▁Begriff	-8536
▁sle	-8537
IR	-8538
▁Ve	-8539
umn	-8540
overy	-8541
St	-8542
▁darstellen	-8543
▁unternehmen	-8544
▁Once	-8545
▁numbers	-8546
stechn	-8547
uts	-8548
▁MP	-8549
▁chines	-8550
▁CH	-8551
hrase	-8552
▁sorg	-8553
▁PT	-8554
▁Bern	-8555
▁volle	-8556
▁dagegen	-8557
schech	-8558
▁Warum	-8559
▁Hard	-8560
leistungs	-8561
set	-8562
▁gefordert	-8563
▁ep	-8564
▁Währung	-8565
▁wenigen	-8566
▁becomes	-8567
▁jur	-8568
▁2011	-8569
jekte	-8570
▁erleben	-8571
allel	-8572
▁win	-8573
appe	-8574
▁Sonnen	-8575
▁estate	-8576
▁database	-8577
▁promotion	-8578
▁Absatz	-8579
▁au	-8580
▁Beitritt	-8581
▁konkrete	-8582
▁Titel	-8583
▁Hauses	-8584
iking	-8585
▁durchaus	-8586
AG	-8587
club	-8588
mär	-8589
▁deep	-8590
▁schem	-8591
▁rent	-8592
▁Anteil	-8593
▁flexibility	-8594
▁Pfl	-8595
▁Messe	-8596
▁eingesch	-8597
▁Mel	-8598
▁PDF	-8599
▁Breakfast	-8600
▁Immobilien	-8601
▁Kritik	-8602
▁Vir	-8603
hnung	-8604
▁Kil	-8605
▁contra	-8606
▁37	-8607
▁told	-8608
ex	-8609
▁Private	-8610
ashion	-8611
▁Übergang	-8612
▁practices	-8613
tempor	-8614
▁multi	-8615
▁superv	-8616
▁hop	-8617
embly	-8618
▁signed	-8619
▁gewährleistet	-8620
▁generation	-8621
▁Fernse	-8622
▁Tick	-8623
▁length	-8624
▁freue	-8625
▁stärken	-8626
▁signal	-8627
▁succeed	-8628
▁Sehenswürd	-8629
▁hinzuf	-8630
band	-8631
▁Effe	-8632
▁quar	-8633
▁except	-8634
▁aims	-8635
▁Klicken	-8636
▁Ratsvorsitz	-8637
▁AK	-8638
▁Gebieten	-8639
▁Hafen	-8640
▁Wass	-8641
▁myself	-8642
▁Modern	-8643
esterday	-8644
ißen	-8645
qualität	-8646
▁absolut	-8647
▁parliamentary	-8648
iche	-8649
▁alt	-8650
▁opposition	-8651
▁Mat	-8652
▁establishment	-8653
▁liebe	-8654
▁Kirche	-8655
▁48	-8656
▁Programms	-8657
▁33	-8658
▁bodies	-8659
etic	-8660
ray	-8661
▁middle	-8662
▁benötigt	-8663
▁trägt	-8664
▁connected	-8665
▁Herstellung	-8666
▁klass	-8667
▁Banken	-8668
cknow	-8669
▁propose	-8670
▁easier	-8671
▁verring	-8672
▁klicken	-8673
▁pros	-8674
▁Links	-8675
▁fle	-8676
law	-8677
▁Worte	-8678
▁translation	-8679
▁Santa	-8680
▁veröffentlicht	-8681
für	-8682
illing	-8683
afe	-8684
▁Brüssel	-8685
aken	-8686
hörde	-8687
▁approxim	-8688
worten	-8689
60	-8690
▁verwende	-8691
▁lokalen	-8692
▁advanced	-8693
▁früh	-8694
bew	-8695
▁hält	-8696
▁experienced	-8697
▁Technik	-8698
▁Rum	-8699
▁clar	-8700
▁Risiko	-8701
▁wirks	-8702
▁himself	-8703
▁Terrasse	-8704
▁Hersteller	-8705
waren	-8706
bericht	-8707
führten	-8708
wagen	-8709
▁ancient	-8710
haben	-8711
lungen	-8712
▁stable	-8713
▁erfolgen	-8714
▁Herausforderung	-8715
uba	-8716
▁zul	-8717
▁promoting	-8718
.4	-8719
▁Inc	-8720
▁Harmon	-8721
issionen	-8722
ranken	-8723
▁Zugrif	-8724
▁defence	-8725
▁erscheint	-8726
inding	-8727
▁geograph	-8728
▁Flücht	-8729
▁Freund	-8730
▁Versuch	-8731
▁domestic	-8732
▁seriously	-8733
▁Association	-8734
▁75	-8735
isierten	-8736
▁conduct	-8737
▁bir	-8738
äumen	-8739
▁erklären	-8740
▁möglichst	-8741
bas	-8742
▁Stein	-8743
▁Königreich	-8744
▁finanzielle	-8745
ny	-8746
▁Colle	-8747
▁192	-8748
edia	-8749
▁Stellungnahme	-8750
haber	-8751
▁cooper	-8752
▁rech	-8753
▁acknow	-8754
▁voice	-8755
▁Geist	-8756
▁politics	-8757
▁Prioritäten	-8758
wogen	-8759
▁erstellen	-8760
▁Asyl	-8761
▁Hall	-8762
ée	-8763
▁booking	-8764
▁Katastrop	-8765
▁spl	-8766
▁dennoch	-8767
▁nächste	-8768
▁anyone	-8769
▁Saint	-8770
isms	-8771
▁concrete	-8772
▁Win	-8773
▁celebr	-8774
▁gering	-8775
▁Nachfolgend	-8776
spunkt	-8777
▁failure	-8778
ibet	-8779
lägen	-8780
▁Schön	-8781
▁accur	-8782
▁behav	-8783
▁natur	-8784
▁Achtung	-8785
opol	-8786
▁Allgemein	-8787
▁pet	-8788
▁dangerous	-8789
▁neighbour	-8790
▁Einhaltung	-8791
▁Zweifel	-8792
▁dimension	-8793
▁konzentrieren	-8794
▁houses	-8795
▁Kompeten	-8796
▁Aufbau	-8797
▁imag	-8798
▁Digital	-8799
▁Texte	-8800
▁Resort	-8801
▁Dennoch	-8802
eten	-8803
▁Alex	-8804
▁positions	-8805
MU	-8806
▁Forderungen	-8807
▁Syn	-8808
▁Poker	-8809
▁organiz	-8810
▁sn	-8811
▁Irish	-8812
▁beaches	-8813
▁gegenseit	-8814
▁persönlich	-8815
lösung	-8816
▁Gewähr	-8817
▁1994	-8818
ibrary	-8819
▁associated	-8820
▁Formen	-8821
▁Hamburg	-8822
peratur	-8823
▁humanitarian	-8824
▁Trade	-8825
▁reservation	-8826
▁NG	-8827
▁erf	-8828
▁models	-8829
▁Einigung	-8830
▁gegründet	-8831
▁combination	-8832
▁Wi	-8833
▁täglich	-8834
▁shop	-8835
▁studies	-8836
▁differences	-8837
▁structures	-8838
▁Aspekt	-8839
IB	-8840
teten	-8841
km	-8842
DP	-8843
pendence	-8844
▁Universität	-8845
▁Afrika	-8846
▁exhibition	-8847
table	-8848
▁Strom	-8849
strateg	-8850
▁carefully	-8851
accept	-8852
▁courses	-8853
▁Anlagen	-8854
▁article	-8855
etter	-8856
▁withdra	-8857
▁übertragen	-8858
ibel	-8859
▁owners	-8860
▁difference	-8861
▁Jahrhunderts	-8862
▁bere	-8863
▁Ban	-8864
▁HT	-8865
karten	-8866
▁instance	-8867
▁beru	-8868
▁quot	-8869
▁happened	-8870
▁unaccept	-8871
▁tut	-8872
▁una	-8873
▁Firstly	-8874
▁unge	-8875
▁Sekt	-8876
▁names	-8877
prinzip	-8878
▁zerst	-8879
▁manage	-8880
▁geleistet	-8881
räume	-8882
ifiziert	-8883
▁implementing	-8884
▁appears	-8885
arta	-8886
▁architecture	-8887
▁Defin	-8888
▁glass	-8889
▁verfolgen	-8890
▁satell	-8891
▁Nahrungs	-8892
▁ahead	-8893
▁statements	-8894
yright	-8895
▁legen	-8896
▁Rechnungs	-8897
▁safegu	-8898
▁spielt	-8899
▁schönen	-8900
▁umfasst	-8901
ando	-8902
▁ausges	-8903
▁positiv	-8904
▁diskutieren	-8905
▁endgült	-8906
▁unabhängig	-8907
▁producers	-8908
▁nennen	-8909
▁collabor	-8910
ua	-8911
▁Kingdom	-8912
▁attractive	-8913
verkehrs	-8914
▁Element	-8915
▁connect	-8916
greif	-8917
erse	-8918
▁Due	-8919
▁vere	-8920
▁fulfil	-8921
licherweise	-8922
▁arrival	-8923
leiten	-8924
▁Ear	-8925
▁Support	-8926
reifen	-8927
▁condem	-8928
▁verlassen	-8929
▁Ideen	-8930
▁Dorf	-8931
preise	-8932
▁spent	-8933
▁Patienten	-8934
▁verloren	-8935
unk	-8936
▁Festival	-8937
▁charged	-8938
▁Work	-8939
icians	-8940
tenance	-8941
▁shared	-8942
▁impossible	-8943
▁denken	-8944
▁availability	-8945
gas	-8946
▁unan	-8947
▁Karten	-8948
▁Lesung	-8949
▁released	-8950
▁African	-8951
▁learning	-8952
▁reducing	-8953
udes	-8954
▁agencies	-8955
▁immediate	-8956
ategory	-8957
▁Lam	-8958
▁attach	-8959
▁leader	-8960
▁television	-8961
ox	-8962
▁Live	-8963
▁betrachtet	-8964
▁cards	-8965
aby	-8966
▁Anw	-8967
▁Wicht	-8968
▁reasonable	-8969
bit	-8970
▁Finn	-8971
liefer	-8972
▁adoption	-8973
meld	-8974
▁announced	-8975
▁stell	-8976
coming	-8977
▁Gemeinsamen	-8978
öder	-8979
▁Künstler	-8980
▁unto	-8981
program	-8982
iest	-8983
▁Wür	-8984
llos	-8985
▁Ruhe	-8986
▁Back	-8987
▁described	-8988
▁Leistung	-8989
▁recognition	-8990
ärm	-8991
▁Tourismus	-8992
rollen	-8993
▁background	-8994
▁guarantees	-8995
▁feststellen	-8996
▁Wand	-8997
▁taste	-8998
▁garantiert	-8999
▁trading	-9000
aw	-9001
▁USB	-9002
▁calling	-9003
▁arbeitet	-9004
▁truly	-9005
ungsverfahren	-9006
▁Sehr	-9007
▁erforderlichen	-9008
▁Rechnung	-9009
ista	-9010
▁hören	-9011
▁forest	-9012
▁abgeschlossen	-9013
ruf	-9014
▁improvement	-9015
▁enth	-9016
zeugung	-9017
can	-9018
läuf	-9019
▁exter	-9020
▁Umfang	-9021
hindert	-9022
▁advance	-9023
auftrag	-9024
▁erleich	-9025
▁entertain	-9026
▁compla	-9027
stimmung	-9028
▁wom	-9029
▁überprüfen	-9030
▁Bahnhof	-9031
regel	-9032
▁genuine	-9033
▁behaup	-9034
äck	-9035
▁kulturellen	-9036
▁Polen	-9037
▁relaxing	-9038
ologische	-9039
▁34	-9040
künd	-9041
▁mist	-9042
LE	-9043
instr	-9044
▁Wall	-9045
▁Vielzahl	-9046
▁begrenz	-9047
▁wishes	-9048
▁dispos	-9049
▁evidence	-9050
▁Foto	-9051
▁possibilities	-9052
deck	-9053
▁Sorge	-9054
iegel	-9055
ointed	-9056
▁Lizenz	-9057
ohlen	-9058
▁Kopf	-9059
▁England	-9060
▁indire	-9061
sicherheit	-9062
▁nearby	-9063
▁membership	-9064
▁Nav	-9065
▁Polize	-9066
▁komplett	-9067
▁Os	-9068
arischen	-9069
▁Gleichzeitig	-9070
▁Großbritannien	-9071
▁urban	-9072
▁Seine	-9073
▁Foundation	-9074
▁trag	-9075
plätzen	-9076
▁Justice	-9077
▁isol	-9078
▁unacceptable	-9079
▁ausreichend	-9080
utin	-9081
▁Muse	-9082
▁einiger	-9083
▁Fel	-9084
▁Ausfl	-9085
▁tasks	-9086
▁cur	-9087
▁bemer	-9088
▁Custom	-9089
▁Teilnehmer	-9090
do	-9091
▁ow	-9092
▁richtigen	-9093
▁Mun	-9094
yer	-9095
▁Mik	-9096
▁hingewiesen	-9097
mod	-9098
▁excess	-9099
▁Beach	-9100
▁Michael	-9101
▁occasion	-9102
▁territory	-9103
▁Stärkung	-9104
gestimmt	-9105
▁Entwicklungen	-9106
▁Media	-9107
▁liter	-9108
▁delic	-9109
▁tätig	-9110
itious	-9111
▁Heimat	-9112
▁cars	-9113
äten	-9114
▁store	-9115
▁Prime	-9116
▁packages	-9117
▁unless	-9118
▁devices	-9119
▁Europeans	-9120
▁Partnerschaft	-9121
▁Barroso	-9122
iro	-9123
▁Fotos	-9124
▁introduce	-9125
no	-9126
▁sale	-9127
▁square	-9128
▁Admin	-9129
iffer	-9130
▁haup	-9131
▁registered	-9132
▁unfortunately	-9133
▁button	-9134
▁window	-9135
▁religious	-9136
ränken	-9137
programme	-9138
▁skills	-9139
ador	-9140
▁miteinander	-9141
▁figures	-9142
▁completed	-9143
▁continued	-9144
üter	-9145
▁älter	-9146
▁Dus	-9147
haltet	-9148
okraten	-9149
▁Turkish	-9150
▁participate	-9151
raucher	-9152
bieter	-9153
▁desire	-9154
▁Fac	-9155
▁beauty	-9156
▁conv	-9157
▁Rome	-9158
▁consumption	-9159
▁combined	-9160
ensus	-9161
▁19.	-9162
eing	-9163
▁unz	-9164
führungen	-9165
▁strongly	-9166
▁dir	-9167
▁command	-9168
▁pure	-9169
▁bezeichnet	-9170
▁Deutsche	-9171
▁continues	-9172
▁greatest	-9173
▁Elemente	-9174
▁Nutzer	-9175
▁surrounding	-9176
EO	-9177
▁Rand	-9178
▁vernünft	-9179
▁kept	-9180
▁Mutter	-9181
▁enables	-9182
ireless	-9183
▁Anlage	-9184
pon	-9185
▁Aussicht	-9186
Script	-9187
▁Option	-9188
▁river	-9189
inc	-9190
▁Problemen	-9191
▁expend	-9192
▁weiterer	-9193
ido	-9194
▁Überwachung	-9195
▁earth	-9196
organisation	-9197
▁vert	-9198
▁raise	-9199
▁attractions	-9200
▁allowing	-9201
▁surface	-9202
▁Bedürfnisse	-9203
90	-9204
ugos	-9205
▁Vienna	-9206
temporary	-9207
▁cra	-9208
posit	-9209
▁Irland	-9210
zwischen	-9211
▁zahlen	-9212
▁Very	-9213
▁Entwurf	-9214
▁Diskrimin	-9215
body	-9216
▁Rob	-9217
▁konstru	-9218
▁Beschreibung	-9219
technik	-9220
▁eingeführt	-9221
▁mission	-9222
▁profitieren	-9223
istisch	-9224
▁aufmerksam	-9225
▁Drogen	-9226
▁effektiv	-9227
▁adapt	-9228
▁monetary	-9229
zz	-9230
weist	-9231
▁Dut	-9232
▁Data	-9233
ilst	-9234
▁Pil	-9235
spe	-9236
▁Architektur	-9237
▁Niederl	-9238
▁Justiz	-9239
gegeben	-9240
chnet	-9241
▁spezielle	-9242
▁transition	-9243
sequent	-9244
▁Nether	-9245
▁Democrats	-9246
▁load	-9247
▁insurance	-9248
itage	-9249
▁mode	-9250
▁SD	-9251
▁Studio	-9252
▁burden	-9253
▁üb	-9254
onia	-9255
▁meters	-9256
▁gewinnen	-9257
▁closer	-9258
▁installed	-9259
ries	-9260
box	-9261
schung	-9262
▁vul	-9263
▁Verhältnis	-9264
▁entitled	-9265
▁dedicated	-9266
▁französischen	-9267
▁Altstadt	-9268
▁romant	-9269
▁Zuständ	-9270
▁Versch	-9271
▁unterstütze	-9272
ris	-9273
▁Mond	-9274
▁Lake	-9275
▁beginnt	-9276
eto	-9277
krieg	-9278
▁appeal	-9279
▁Day	-9280
▁geschehen	-9281
▁zentrale	-9282
▁Verletz	-9283
ía	-9284
▁chair	-9285
▁unc	-9286
allery	-9287
▁fruit	-9288
▁story	-9289
▁überall	-9290
▁danach	-9291
▁Regelungen	-9292
▁ök	-9293
▁norm	-9294
▁relativ	-9295
▁Manager	-9296
▁einsetzen	-9297
▁core	-9298
öse	-9299
tzeit	-9300
▁kons	-9301
▁Control	-9302
▁Bewertung	-9303
▁vorliegenden	-9304
windigkeit	-9305
▁entstanden	-9306
▁Pool	-9307
▁keinerlei	-9308
▁sämtliche	-9309
HT	-9310
sec	-9311
qual	-9312
▁Marketing	-9313
▁ru	-9314
▁Europäer	-9315
▁golf	-9316
▁Agentur	-9317
▁Jeder	-9318
bere	-9319
andidaten	-9320
zig	-9321
▁Meiner	-9322
▁buffet	-9323
rüst	-9324
stands	-9325
▁seven	-9326
▁gram	-9327
▁Tisch	-9328
▁asyl	-9329
▁besitzt	-9330
▁Mü	-9331
▁Kurs	-9332
▁bestätigt	-9333
▁Fire	-9334
▁Priorität	-9335
ema	-9336
wissen	-9337
▁Peter	-9338
▁regionalen	-9339
▁gegenwärtig	-9340
lück	-9341
▁sensitive	-9342
▁drop	-9343
▁ID	-9344
▁White	-9345
▁reliable	-9346
▁railway	-9347
rich	-9348
hören	-9349
▁balanced	-9350
▁luxury	-9351
▁Eastern	-9352
▁einfache	-9353
▁exercise	-9354
▁großes	-9355
▁totally	-9356
▁nütz	-9357
▁court	-9358
▁vollkommen	-9359
▁Hist	-9360
▁asylum	-9361
▁sides	-9362
▁Austrian	-9363
▁11.	-9364
▁Third	-9365
▁nom	-9366
▁declar	-9367
▁enormous	-9368
▁grenzüber	-9369
▁einst	-9370
▁38	-9371
▁advertising	-9372
▁Stadtz	-9373
▁holidays	-9374
▁perspective	-9375
▁haupts	-9376
▁verfolgt	-9377
asil	-9378
▁98	-9379
▁Another	-9380
▁Vertrie	-9381
ikal	-9382
▁storage	-9383
▁beteiligt	-9384
▁Verpflichtung	-9385
▁union	-9386
olz	-9387
▁AR	-9388
▁meant	-9389
▁compared	-9390
▁por	-9391
▁äuß	-9392
▁empfehlen	-9393
▁Griechenland	-9394
bieten	-9395
▁Gerichtshof	-9396
▁notice	-9397
▁gestalten	-9398
▁na	-9399
▁drawn	-9400
▁device	-9401
▁extended	-9402
▁Budget	-9403
anische	-9404
▁individuals	-9405
▁dee	-9406
linge	-9407
▁earn	-9408
iscal	-9409
▁Fortschritt	-9410
▁memory	-9411
▁election	-9412
door	-9413
erma	-9414
▁geschützt	-9415
▁Van	-9416
▁qualit	-9417
leihen	-9418
ausschusses	-9419
atever	-9420
▁moving	-9421
▁offensichtlich	-9422
isierte	-9423
▁stands	-9424
▁Nevertheless	-9425
▁gutes	-9426
sektor	-9427
▁einver	-9428
▁vision	-9429
▁elected	-9430
▁Angesichts	-9431
70	-9432
bil	-9433
ih	-9434
istik	-9435
▁Ty	-9436
itar	-9437
▁claims	-9438
▁Mitteln	-9439
▁establishing	-9440
▁Meeres	-9441
stattung	-9442
▁Urs	-9443
iced	-9444
steht	-9445
▁biggest	-9446
▁höchste	-9447
▁stim	-9448
▁veget	-9449
lern	-9450
▁größeren	-9451
▁corporate	-9452
nam	-9453
erungs	-9454
uchten	-9455
▁collect	-9456
▁science	-9457
11	-9458
▁compat	-9459
bring	-9460
aktionen	-9461
▁definition	-9462
▁Bis	-9463
▁freie	-9464
▁Latin	-9465
▁Federal	-9466
▁reprodu	-9467
aub	-9468
▁convinced	-9469
attform	-9470
▁zusätzlich	-9471
▁politischer	-9472
▁mountains	-9473
▁forced	-9474
▁hum	-9475
▁Where	-9476
zep	-9477
▁weight	-9478
▁Fitness	-9479
▁diss	-9480
mittag	-9481
▁warten	-9482
▁Bla	-9483
▁garantieren	-9484
▁Worten	-9485
▁geeig	-9486
▁Marken	-9487
▁unit	-9488
▁granted	-9489
ags	-9490
▁Größe	-9491
▁highlight	-9492
▁liber	-9493
▁Foreign	-9494
▁urgent	-9495
pal	-9496
▁grant	-9497
▁Grunde	-9498
▁Netherlands	-9499
▁4.	-9500
▁Erhö	-9501
viel	-9502
▁enfor	-9503
▁Presse	-9504
▁Martin	-9505
reten	-9506
▁suite	-9507
▁match	-9508
▁passed	-9509
▁Unterkunft	-9510
▁Croat	-9511
▁ergeben	-9512
▁gegenwärtigen	-9513
▁Haut	-9514
▁rob	-9515
▁colour	-9516
▁eingere	-9517
▁Maße	-9518
▁registr	-9519
zust	-9520
▁para	-9521
▁guide	-9522
▁flight	-9523
▁Special	-9524
▁interface	-9525
▁conclusions	-9526
▁formal	-9527
▁grunds	-9528
▁Globalisierung	-9529
▁Eindruck	-9530
enkt	-9531
▁folgende	-9532
▁Player	-9533
▁beinhaltet	-9534
▁Front	-9535
▁Indien	-9536
▁refle	-9537
▁failed	-9538
▁Studien	-9539
▁umfassende	-9540
omas	-9541
▁sem	-9542
▁advice	-9543
kräfte	-9544
▁beige	-9545
▁motiv	-9546
▁Gebrauch	-9547
▁Mindest	-9548
▁Zoll	-9549
heits	-9550
▁Company	-9551
▁Apparte	-9552
▁verbundenen	-9553
oram	-9554
▁secret	-9555
▁ausführ	-9556
▁controls	-9557
▁magn	-9558
▁Datenbank	-9559
▁finance	-9560
afr	-9561
xts	-9562
▁sogen	-9563
▁2013	-9564
▁Format	-9565
▁chosen	-9566
brauch	-9567
▁internationaler	-9568
▁route	-9569
irms	-9570
Innen	-9571
▁Verz	-9572
▁Bill	-9573
▁leb	-9574
▁Ros	-9575
▁forth	-9576
▁42	-9577
▁Quest	-9578
▁lä	-9579
▁update	-9580
▁kü	-9581
▁Sä	-9582
▁dauer	-9583
▁Treffen	-9584
▁Feld	-9585
▁blog	-9586
▁perfectly	-9587
▁Beteiligung	-9588
mögen	-9589
▁Mas	-9590
▁rock	-9591
iode	-9592
▁tried	-9593
▁solcher	-9594
▁maintenance	-9595
▁Palace	-9596
▁Institute	-9597
▁250	-9598
▁spa	-9599
▁artists	-9600
ague	-9601
▁Monat	-9602
▁prison	-9603
▁Greek	-9604
▁jour	-9605
▁Aktion	-9606
chem	-9607
gypt	-9608
▁pour	-9609
▁fern	-9610
icking	-9611
▁Erklärungen	-9612
ürk	-9613
▁sched	-9614
▁Märkte	-9615
▁unable	-9616
▁Ans	-9617
▁dig	-9618
▁tief	-9619
▁kos	-9620
▁Städte	-9621
▁Mitglieds	-9622
onial	-9623
▁organised	-9624
▁expression	-9625
▁wunderschö	-9626
▁economies	-9627
äfen	-9628
mo	-9629
▁BM	-9630
▁Aktionen	-9631
▁contrary	-9632
▁wesentlichen	-9633
lägt	-9634
verse	-9635
▁Constitution	-9636
reibt	-9637
handlungen	-9638
grade	-9639
klusive	-9640
▁disease	-9641
▁Regulation	-9642
athed	-9643
iertes	-9644
▁Kompon	-9645
hlt	-9646
▁laid	-9647
▁spending	-9648
ress	-9649
▁PPE	-9650
iothe	-9651
▁Blog	-9652
▁Fert	-9653
▁beglück	-9654
▁Datenschutz	-9655
▁aufzu	-9656
▁teilnehmen	-9657
▁Jac	-9658
▁verf	-9659
▁Todes	-9660
▁definit	-9661
▁5.	-9662
▁Experten	-9663
▁Relig	-9664
ammer	-9665
▁Gründe	-9666
▁factors	-9667
▁saw	-9668
▁bound	-9669
▁honourable	-9670
▁Schm	-9671
straße	-9672
▁balcon	-9673
▁Kohäs	-9674
▁vehicle	-9675
▁beglückw	-9676
▁rightly	-9677
▁korre	-9678
▁photos	-9679
enntnisse	-9680
▁Betriebs	-9681
▁Vermitt	-9682
▁chemical	-9683
stät	-9684
▁agency	-9685
▁Good	-9686
▁Rezeption	-9687
bald	-9688
▁Menü	-9689
reisen	-9690
ibliothe	-9691
cco	-9692
▁changing	-9693
▁legitim	-9694
▁candidate	-9695
▁outstanding	-9696
hebung	-9697
▁Reich	-9698
▁destroy	-9699
vorschlag	-9700
uble	-9701
▁Erde	-9702
uters	-9703
actions	-9704
SL	-9705
▁commitments	-9706
version	-9707
aker	-9708
▁Thus	-9709
▁patent	-9710
▁condemn	-9711
reu	-9712
inent	-9713
▁Unabhängigkeit	-9714
▁neither	-9715
▁Palestinian	-9716
worfen	-9717
▁ambitious	-9718
▁sell	-9719
▁speziellen	-9720
▁müs	-9721
▁erh	-9722
▁Hinweis	-9723
▁intervention	-9724
▁unf	-9725
active	-9726
▁Garden	-9727
da	-9728
▁Mitgliedern	-9729
▁Gent	-9730
▁vergleich	-9731
▁investig	-9732
▁Beim	-9733
äufer	-9734
▁ECU	-9735
igrants	-9736
olge	-9737
▁dient	-9738
▁micro	-9739
mittelt	-9740
▁Farben	-9741
▁Ganz	-9742
▁analy	-9743
setzt	-9744
▁ster	-9745
▁weapons	-9746
▁obviously	-9747
▁accessible	-9748
reck	-9749
schrift	-9750
nehmern	-9751
▁Niveau	-9752
▁Wiederauf	-9753
imit	-9754
▁diplomat	-9755
▁dé	-9756
▁MyS	-9757
▁achieving	-9758
▁Alban	-9759
▁fashion	-9760
▁enor	-9761
▁category	-9762
leun	-9763
▁geöffnet	-9764
▁Gut	-9765
person	-9766
▁constantly	-9767
ichtete	-9768
▁Sur	-9769
▁lov	-9770
isierungs	-9771
▁Flexibilität	-9772
▁approximately	-9773
bett	-9774
ington	-9775
▁betrachten	-9776
apers	-9777
▁limits	-9778
▁colleague	-9779
▁Via	-9780
▁erfre	-9781
▁Zahlen	-9782
▁revolution	-9783
mon	-9784
▁furnished	-9785
hy	-9786
▁outcome	-9787
▁schöne	-9788
▁Yet	-9789
älfte	-9790
▁langen	-9791
▁surrounded	-9792
▁payments	-9793
▁Empfehlungen	-9794
▁04	-9795
▁preserv	-9796
▁gelungen	-9797
▁Gegensatz	-9798
▁EP	-9799
▁Ereignisse	-9800
wortet	-9801
▁Wechsel	-9802
olo	-9803
▁800	-9804
▁dur	-9805
▁Class	-9806
sequently	-9807
alty	-9808
▁intention	-9809
▁obligations	-9810
nach	-9811
▁erg	-9812
verein	-9813
▁Verständnis	-9814
▁OS	-9815
▁Weitere	-9816
▁Slow	-9817
knü	-9818
▁lake	-9819
▁Beschluss	-9820
▁yesterday	-9821
▁AT	-9822
▁cheap	-9823
▁informiert	-9824
kor	-9825
▁race	-9826
▁correspond	-9827
▁lauf	-9828
▁privile	-9829
▁organization	-9830
endum	-9831
▁1992	-9832
▁Beihilfen	-9833
▁umwelt	-9834
▁Journal	-9835
▁steigen	-9836
▁contents	-9837
▁contained	-9838
▁erhöht	-9839
▁aircraft	-9840
▁satellite	-9841
▁festge	-9842
▁situations	-9843
▁starke	-9844
▁cool	-9845
ventions	-9846
▁someone	-9847
▁title	-9848
▁Methode	-9849
pa	-9850
▁enhan	-9851
▁Kontroll	-9852
▁Fenster	-9853
▁Kaffe	-9854
ancy	-9855
▁Nachdem	-9856
▁successfully	-9857
▁näher	-9858
isure	-9859
ENT	-9860
abl	-9861
▁THE	-9862
▁blue	-9863
▁Los	-9864
▁Phase	-9865
▁Süden	-9866
▁guter	-9867
▁benach	-9868
▁Botschaft	-9869
▁Nik	-9870
▁20.	-9871
▁Located	-9872
▁Erhol	-9873
▁Typ	-9874
▁continuing	-9875
üb	-9876
▁write	-9877
▁physical	-9878
▁Inseln	-9879
▁britischen	-9880
▁grie	-9881
▁RE	-9882
▁daraus	-9883
▁equality	-9884
▁band	-9885
▁Summit	-9886
versorgung	-9887
▁Dimension	-9888
ram	-9889
▁fraud	-9890
▁distin	-9891
idung	-9892
▁Wirkung	-9893
▁swe	-9894
▁asking	-9895
▁manchmal	-9896
iov	-9897
▁Fraktionen	-9898
rance	-9899
fähig	-9900
▁reject	-9901
abilities	-9902
alia	-9903
asen	-9904
▁tie	-9905
klang	-9906
▁Verkauf	-9907
▁beachten	-9908
▁RO	-9909
▁Agency	-9910
ifications	-9911
auso	-9912
▁Sun	-9913
▁Formular	-9914
fle	-9915
jet	-9916
▁sorgfält	-9917
▁independence	-9918
▁Spiele	-9919
eds	-9920
▁Express	-9921
ound	-9922
▁Distrib	-9923
▁Gebiete	-9924
▁nar	-9925
▁hauptsächlich	-9926
▁Militär	-9927
▁recommendations	-9928
▁rig	-9929
▁bars	-9930
▁ideale	-9931
▁id	-9932
enswert	-9933
▁philosoph	-9934
▁Beob	-9935
▁operate	-9936
▁herzlich	-9937
▁Realität	-9938
atures	-9939
▁goals	-9940
elbe	-9941
▁dete	-9942
istry	-9943
▁expenditure	-9944
▁Vorteil	-9945
▁pred	-9946
▁türk	-9947
▁Lord	-9948
▁Bol	-9949
▁surv	-9950
▁Entsp	-9951
▁überein	-9952
▁species	-9953
▁außerord	-9954
▁prevention	-9955
▁einverstanden	-9956
▁Eth	-9957
▁allgemeine	-9958
kurr	-9959
▁winn	-9960
ario	-9961
▁Chem	-9962
▁zone	-9963
ähren	-9964
▁fiscal	-9965
wers	-9966
reitung	-9967
▁appar	-9968
▁Schwar	-9969
▁mittels	-9970
▁pill	-9971
reitet	-9972
▁Il	-9973
▁Alp	-9974
▁III	-9975
▁geschieht	-9976
--	-9977
▁consists	-9978
▁convention	-9979
▁Hoffnung	-9980
ipe	-9981
▁gebe	-9982
▁festgestellt	-9983
▁sobald	-9984
▁gehalten	-9985
▁landscape	-9986
▁MEP	-9987
▁600	-9988
▁Gaz	-9989
▁Hauptstadt	-9990
orient	-9991
▁Graf	-9992
▁Voraussetzungen	-9993
▁Vom	-9994
ünfte	-9995
gefähr	-9996
▁treten	-9997
▁planned	-9998
▁waiting	-9999
esty	-10000
lete	-10001
▁targets	-10002
▁Grundrechte	-10003
▁merely	-10004
det	-10005
▁Enjoy	-10006
▁Royal	-10007
▁Old	-10008
▁Pic	-10009
▁participants	-10010
gbarkeit	-10011
II	-10012
▁Glas	-10013
▁webs	-10014
▁mittl	-10015
▁Square	-10016
▁overlook	-10017
bal	-10018
▁contemporary	-10019
ategorie	-10020
so	-10021
ismen	-10022
▁Sprach	-10023
▁acts	-10024
▁niemand	-10025
▁dry	-10026
▁registration	-10027
▁whe	-10028
bindung	-10029
▁Ausland	-10030
▁putting	-10031
▁binding	-10032
obility	-10033
kan	-10034
▁rasch	-10035
iam	-10036
▁count	-10037
▁Nu	-10038
▁glad	-10039
▁underg	-10040
▁Time	-10041
▁spricht	-10042
▁Those	-10043
▁einzigen	-10044
TA	-10045
▁Energy	-10046
▁Apartment	-10047
road	-10048
▁unternommen	-10049
▁kaufen	-10050
▁Touristen	-10051
▁möglichen	-10052
handels	-10053
▁attend	-10054
▁Jose	-10055
▁schneller	-10056
▁vorgeschlagenen	-10057
▁submit	-10058
▁Prüfung	-10059
▁guaranteed	-10060
▁abhäng	-10061
▁einsch	-10062
▁pun	-10063
rochen	-10064
iegen	-10065
politischen	-10066
▁Landschaft	-10067
▁factor	-10068
▁nav	-10069
▁Bedarf	-10070
▁disposal	-10071
MS	-10072
▁wealth	-10073
▁Fischer	-10074
▁smaller	-10075
▁Teilen	-10076
jährigen	-10077
▁Pop	-10078
▁Both	-10079
gerung	-10080
▁mechanism	-10081
eting	-10082
▁cook	-10083
▁slight	-10084
▁Gegenteil	-10085
▁communities	-10086
ktivität	-10087
▁Trek	-10088
▁Island	-10089
▁sage	-10090
▁defic	-10091
▁damals	-10092
▁seeking	-10093
▁schn	-10094
▁afford	-10095
▁massive	-10096
tellect	-10097
▁Dach	-10098
▁Erwart	-10099
▁assign	-10100
▁grounds	-10101
▁reve	-10102
▁selten	-10103
▁Karl	-10104
▁pointed	-10105
▁120	-10106
▁Rules	-10107
▁password	-10108
iffe	-10109
▁neighb	-10110
passung	-10111
trib	-10112
▁persönliche	-10113
▁leads	-10114
▁jungen	-10115
▁erfordert	-10116
kunden	-10117
▁testing	-10118
▁übernommen	-10119
▁Männer	-10120
▁JavaScript	-10121
▁ton	-10122
orough	-10123
▁capable	-10124
▁jüngsten	-10125
▁letter	-10126
▁ausländ	-10127
▁Rem	-10128
▁labor	-10129
▁acceptable	-10130
umer	-10131
▁Thanks	-10132
▁Einkaufs	-10133
▁bringing	-10134
▁Bestandteil	-10135
▁Fax	-10136
▁compliance	-10137
öss	-10138
▁Rund	-10139
▁medizin	-10140
▁Veranstaltungen	-10141
▁Lag	-10142
▁Set	-10143
▁dynamic	-10144
▁Teilnahme	-10145
otten	-10146
ählten	-10147
▁anbieten	-10148
▁Arbeitsmarkt	-10149
▁Andre	-10150
▁teilen	-10151
unehm	-10152
▁CS	-10153
▁Komb	-10154
▁pleasure	-10155
bu	-10156
▁Urspr	-10157
▁eye	-10158
▁Maria	-10159
▁User	-10160
▁nationaler	-10161
apt	-10162
produktion	-10163
mine	-10164
▁regelmäßig	-10165
vely	-10166
bürger	-10167
▁Ton	-10168
▁Klimaanlage	-10169
▁ung	-10170
▁toler	-10171
▁Cre	-10172
▁phase	-10173
▁190	-10174
▁master	-10175
▁Streit	-10176
erry	-10177
eind	-10178
▁Sweden	-10179
▁Gesetzgebung	-10180
▁Nichtraucher	-10181
▁Know	-10182
▁Politiker	-10183
kop	-10184
▁therm	-10185
▁fuel	-10186
▁Prakt	-10187
akete	-10188
▁examples	-10189
▁Publik	-10190
inder	-10191
▁Welche	-10192
▁steel	-10193
▁vieler	-10194
▁beob	-10195
▁Risiken	-10196
▁brings	-10197
▁prospect	-10198
▁Tit	-10199
▁School	-10200
▁gewiss	-10201
▁bedroom	-10202
▁Repr	-10203
▁Pin	-10204
▁Beif	-10205
▁valu	-10206
UT	-10207
arium	-10208
▁Dutch	-10209
▁Zimmern	-10210
▁55	-10211
wegs	-10212
▁smoking	-10213
▁nachhaltige	-10214
▁AB	-10215
▁Zuf	-10216
annung	-10217
▁causes	-10218
sper	-10219
▁Press	-10220
▁Chamber	-10221
▁Details	-10222
▁Effizienz	-10223
▁Autor	-10224
▁vorschlagen	-10225
▁conclude	-10226
▁berecht	-10227
utr	-10228
▁Jean	-10229
▁copy	-10230
▁trend	-10231
▁betroffenen	-10232
▁Finan	-10233
the	-10234
odurch	-10235
▁exclus	-10236
▁Dort	-10237
▁resulting	-10238
▁manufacturing	-10239
▁Cypr	-10240
▁River	-10241
▁fif	-10242
▁retain	-10243
▁Angebote	-10244
▁HD	-10245
ausende	-10246
▁multiple	-10247
▁praktisch	-10248
era	-10249
▁ta	-10250
▁optimal	-10251
istenz	-10252
▁elegan	-10253
▁sets	-10254
ssystem	-10255
ipping	-10256
▁grammat	-10257
▁governance	-10258
ifellos	-10259
▁spaces	-10260
▁association	-10261
▁Liberalisierung	-10262
ela	-10263
zil	-10264
▁Gefühl	-10265
▁nearly	-10266
▁kleiner	-10267
richtlinie	-10268
▁weg	-10269
▁Gedanken	-10270
▁strengthening	-10271
▁GM	-10272
▁rot	-10273
▁flow	-10274
vereign	-10275
▁Nice	-10276
endung	-10277
▁identity	-10278
▁gemeinschaft	-10279
▁eight	-10280
▁Methoden	-10281
krat	-10282
ablen	-10283
▁sovereign	-10284
▁explain	-10285
▁deutsche	-10286
▁beschäftigt	-10287
▁Bio	-10288
▁Charter	-10289
▁Alliance	-10290
ermaßen	-10291
▁Direkt	-10292
▁zugleich	-10293
LAN	-10294
ansion	-10295
▁zählen	-10296
▁driving	-10297
▁echte	-10298
▁traditionellen	-10299
wiesen	-10300
▁versions	-10301
gesellschaften	-10302
▁Fluss	-10303
▁1993	-10304
ränkungen	-10305
▁Liebe	-10306
▁Bosn	-10307
▁Flash	-10308
ped	-10309
▁07	-10310
▁acht	-10311
▁Ferienwohn	-10312
▁Verbesser	-10313
eshalb	-10314
gg	-10315
▁surpr	-10316
▁Gesam	-10317
▁Überprüfung	-10318
cast	-10319
ques	-10320
▁wichtigste	-10321
äume	-10322
▁Morgen	-10323
▁Rotary	-10324
▁wodurch	-10325
▁39	-10326
▁Hor	-10327
▁21.	-10328
▁obst	-10329
▁zunehm	-10330
▁Veröffentlich	-10331
▁qualified	-10332
CD	-10333
iene	-10334
mlich	-10335
▁Übern	-10336
▁Pflicht	-10337
▁gewählt	-10338
▁Autob	-10339
▁truth	-10340
▁therap	-10341
cling	-10342
▁Ausnahme	-10343
▁assum	-10344
▁explan	-10345
▁sichern	-10346
▁safeguard	-10347
▁authent	-10348
▁erneuer	-10349
enture	-10350
wachst	-10351
inations	-10352
▁Ca	-10353
fest	-10354
▁sieben	-10355
▁Erhöhung	-10356
▁southern	-10357
▁proportion	-10358
▁evaluation	-10359
▁Two	-10360
ulating	-10361
▁hergestellt	-10362
▁divid	-10363
▁Ebenso	-10364
▁requested	-10365
▁wachs	-10366
▁adequate	-10367
▁patients	-10368
▁Sound	-10369
▁previously	-10370
▁besseren	-10371
▁discussing	-10372
▁primary	-10373
▁Internationalen	-10374
ktop	-10375
▁Romania	-10376
▁Champ	-10377
▁incorpor	-10378
.200	-10379
▁andererseits	-10380
▁Koordinierung	-10381
▁amt	-10382
▁Sonn	-10383
wechs	-10384
▁argument	-10385
▁withdraw	-10386
▁unterschiedlich	-10387
▁consensus	-10388
▁bon	-10389
▁Ep	-10390
▁remove	-10391
▁bio	-10392
▁Rumän	-10393
▁Angel	-10394
▁betrie	-10395
ky	-10396
▁Mach	-10397
▁Rich	-10398
▁bran	-10399
ierend	-10400
▁Dublin	-10401
▁inhab	-10402
▁liability	-10403
▁audio	-10404
▁Angriff	-10405
▁Que	-10406
▁Cam	-10407
utzung	-10408
▁Hälfte	-10409
▁kontext	-10410
▁reinfor	-10411
▁addressed	-10412
▁primarily	-10413
▁Stadtzentrum	-10414
ending	-10415
▁Eltern	-10416
▁Gästen	-10417
▁determined	-10418
▁verk	-10419
oret	-10420
hann	-10421
▁USS	-10422
▁lau	-10423
▁print	-10424
▁orders	-10425
▁Norden	-10426
▁Führung	-10427
▁named	-10428
▁1000	-10429
▁fällt	-10430
▁Absicht	-10431
▁diskutiert	-10432
▁Diskriminierung	-10433
▁Provin	-10434
gänglich	-10435
▁nations	-10436
▁recovery	-10437
▁Akte	-10438
▁Subs	-10439
▁Merk	-10440
▁expensive	-10441
organisationen	-10442
▁Laufe	-10443
▁aktual	-10444
▁vulner	-10445
▁irgende	-10446
▁95	-10447
▁representative	-10448
üben	-10449
legte	-10450
selben	-10451
▁vielfält	-10452
▁Aufgrund	-10453
▁Ref	-10454
▁weiteres	-10455
▁Serie	-10456
▁respekt	-10457
▁finde	-10458
▁schools	-10459
▁books	-10460
▁spot	-10461
▁doll	-10462
▁wall	-10463
▁kinds	-10464
▁seitens	-10465
▁willkommen	-10466
▁attacks	-10467
▁zunehmend	-10468
issens	-10469
▁noise	-10470
zwungen	-10471
▁Tai	-10472
▁industries	-10473
▁Kas	-10474
▁nation	-10475
abled	-10476
▁begann	-10477
▁journal	-10478
ds	-10479
▁Dokumente	-10480
lebnis	-10481
▁demokratische	-10482
▁WC	-10483
▁Find	-10484
ktions	-10485
▁meist	-10486
▁jemand	-10487
▁kürzlich	-10488
OP	-10489
▁Tiere	-10490
▁Vision	-10491
▁Report	-10492
iling	-10493
▁Zustand	-10494
▁einzelne	-10495
▁disch	-10496
▁Wegen	-10497
▁corner	-10498
▁grand	-10499
▁snow	-10500
▁Master	-10501
▁Bewegung	-10502
▁talks	-10503
alys	-10504
▁keeping	-10505
▁instruct	-10506
▁anf	-10507
▁Turn	-10508
▁fried	-10509
▁imper	-10510
▁piece	-10511
▁Radio	-10512
stär	-10513
▁lag	-10514
iring	-10515
▁territorial	-10516
▁Lou	-10517
▁Shop	-10518
▁consolid	-10519
▁existence	-10520
▁Tim	-10521
▁Vorbereitung	-10522
▁mel	-10523
▁Anliegen	-10524
▁reagieren	-10525
ampagne	-10526
▁capt	-10527
▁turned	-10528
oster	-10529
▁Satell	-10530
otenzial	-10531
▁Korea	-10532
▁Patent	-10533
bereiche	-10534
▁decades	-10535
▁opposite	-10536
▁thereby	-10537
▁akzeptiert	-10538
▁MS	-10539
▁voc	-10540
▁hall	-10541
▁Financial	-10542
▁junge	-10543
▁delivered	-10544
lege	-10545
▁08	-10546
▁Cook	-10547
▁Fälle	-10548
▁prepare	-10549
▁reply	-10550
▁Argent	-10551
▁dealt	-10552
▁Berücksicht	-10553
pielt	-10554
▁griech	-10555
▁default	-10556
odes	-10557
▁09	-10558
ahnen	-10559
lesen	-10560
▁gespe	-10561
▁Willen	-10562
ruction	-10563
▁Freunde	-10564
▁sinnvoll	-10565
zeß	-10566
▁diversity	-10567
▁Freizeit	-10568
▁waters	-10569
▁Dienstleistungs	-10570
▁Rock	-10571
entscheid	-10572
imal	-10573
▁Lö	-10574
rant	-10575
▁Show	-10576
▁Prodi	-10577
▁verteid	-10578
▁fed	-10579
▁Alter	-10580
▁1980	-10581
▁nochmals	-10582
▁Anpassung	-10583
▁Fähigkeit	-10584
▁AD	-10585
nahm	-10586
▁behandeln	-10587
▁Englisch	-10588
▁mutual	-10589
▁anerkannt	-10590
lebt	-10591
▁skin	-10592
▁diesbe	-10593
▁engl	-10594
▁genü	-10595
▁thre	-10596
▁vorbe	-10597
▁Follow	-10598
▁ländlichen	-10599
rupt	-10600
▁Delegation	-10601
ancen	-10602
▁Grenze	-10603
▁amongst	-10604
▁Fi	-10605
iern	-10606
iry	-10607
▁65	-10608
▁extreme	-10609
▁positiven	-10610
▁dritten	-10611
▁berühmten	-10612
▁Minutes	-10613
▁manufacturers	-10614
▁lock	-10615
▁angeht	-10616
igsten	-10617
▁feeling	-10618
▁Schloss	-10619
icon	-10620
▁Präs	-10621
▁Sud	-10622
▁betont	-10623
Os	-10624
management	-10625
▁Equ	-10626
▁Stunde	-10627
▁unanim	-10628
▁Stück	-10629
▁Suite	-10630
▁umgeben	-10631
▁dro	-10632
▁treated	-10633
▁Church	-10634
het	-10635
▁east	-10636
ädt	-10637
▁dah	-10638
▁Betr	-10639
▁David	-10640
▁bureau	-10641
▁marked	-10642
▁Ordnung	-10643
strategie	-10644
▁Pflanzen	-10645
information	-10646
▁urge	-10647
▁sicherstellen	-10648
▁Theater	-10649
▁führenden	-10650
▁onto	-10651
zahlung	-10652
▁Despite	-10653
▁charming	-10654
▁Zahlungs	-10655
▁spät	-10656
▁belong	-10657
▁99	-10658
artet	-10659
aces	-10660
▁Verfügbarkeit	-10661
metho	-10662
▁begonnen	-10663
proz	-10664
station	-10665
▁97	-10666
▁Dra	-10667
▁Besitz	-10668
▁06	-10669
▁Take	-10670
▁parallel	-10671
▁systemat	-10672
TP	-10673
▁zunehmen	-10674
▁Jes	-10675
▁Bek	-10676
▁diverse	-10677
▁intensive	-10678
▁bewegen	-10679
.-	-10680
▁43	-10681
▁Minderheiten	-10682
▁PR	-10683
▁cm	-10684
iser	-10685
▁Klim	-10686
▁Munich	-10687
▁verstärkt	-10688
▁accounts	-10689
ady	-10690
▁consultation	-10691
▁Hilfs	-10692
▁44	-10693
▁runs	-10694
iquid	-10695
▁AP	-10696
▁Kyoto	-10697
▁Brazil	-10698
▁gesellschaft	-10699
▁heavy	-10700
entlichen	-10701
igern	-10702
▁Gesetze	-10703
uc	-10704
▁Before	-10705
▁technological	-10706
▁191	-10707
▁Sens	-10708
▁Valle	-10709
▁Umständen	-10710
▁zuverläss	-10711
▁Kong	-10712
▁pension	-10713
▁exem	-10714
▁Expl	-10715
▁Signal	-10716
▁Kombination	-10717
▁Unterschiede	-10718
gin	-10719
uttle	-10720
▁barr	-10721
unsten	-10722
▁Kunde	-10723
▁Johann	-10724
▁Eigenschaften	-10725
▁ultim	-10726
▁Reaktion	-10727
▁Div	-10728
▁switch	-10729
▁Registr	-10730
tellectual	-10731
absicht	-10732
▁Box	-10733
bereitet	-10734
▁Nachrichten	-10735
▁horiz	-10736
▁configur	-10737
▁investments	-10738
▁recommended	-10739
▁fand	-10740
▁shape	-10741
▁Jack	-10742
▁cold	-10743
▁Engine	-10744
grundlage	-10745
▁Diskussionen	-10746
folio	-10747
▁Swed	-10748
▁blood	-10749
▁München	-10750
urm	-10751
▁repeated	-10752
▁Freude	-10753
▁Skype	-10754
▁represented	-10755
fers	-10756
verw	-10757
anger	-10758
▁Einklang	-10759
▁mechanisms	-10760
▁Use	-10761
▁Revolution	-10762
▁Kollege	-10763
fügt	-10764
▁Bildungs	-10765
▁fordert	-10766
place	-10767
▁Komment	-10768
▁Zul	-10769
24	-10770
▁plug	-10771
▁moved	-10772
▁leiden	-10773
▁zustimmen	-10774
▁wait	-10775
▁Erwach	-10776
▁Disc	-10777
▁Klimawandel	-10778
▁knows	-10779
▁Gewinn	-10780
▁complet	-10781
pert	-10782
▁Rub	-10783
▁soft	-10784
▁Strukturfonds	-10785
zahlt	-10786
▁attitude	-10787
sprach	-10788
▁verlieren	-10789
▁Balt	-10790
▁flat	-10791
griffe	-10792
▁schlecht	-10793
▁privacy	-10794
▁Holl	-10795
▁Dadurch	-10796
▁speakers	-10797
▁vorgenommen	-10798
▁improvements	-10799
▁attemp	-10800
▁Pay	-10801
▁beruf	-10802
▁vielmehr	-10803
▁browser	-10804
folgerungen	-10805
▁Kreat	-10806
▁presentation	-10807
▁COM	-10808
tehen	-10809
fertigt	-10810
▁globale	-10811
▁Wachstums	-10812
▁Bestell	-10813
▁requests	-10814
▁experiences	-10815
▁Perspekt	-10816
▁straight	-10817
▁error	-10818
stoffen	-10819
essor	-10820
▁leisure	-10821
▁ergriffen	-10822
▁überzeugen	-10823
▁Handeln	-10824
▁bedrooms	-10825
▁pil	-10826
▁arms	-10827
▁befassen	-10828
▁trees	-10829
▁derzeitigen	-10830
orgnis	-10831
hrt	-10832
▁competence	-10833
▁Bedenken	-10834
▁starken	-10835
▁expertise	-10836
▁laut	-10837
▁leadership	-10838
atlant	-10839
▁Bor	-10840
▁Law	-10841
▁hair	-10842
aks	-10843
jection	-10844
▁Definition	-10845
▁helping	-10846
▁Unterschied	-10847
▁ehemaligen	-10848
▁schließen	-10849
ulted	-10850
▁gewisse	-10851
sein	-10852
▁obligation	-10853
lichem	-10854
sichts	-10855
▁adj	-10856
▁Zugriff	-10857
▁Wil	-10858
▁Kranken	-10859
▁bildet	-10860
▁höchst	-10861
▁websites	-10862
▁furniture	-10863
jo	-10864
▁birth	-10865
▁output	-10866
fare	-10867
▁Baum	-10868
▁destination	-10869
▁stone	-10870
▁abgele	-10871
▁transp	-10872
kurs	-10873
gence	-10874
▁läuft	-10875
▁Antworten	-10876
▁Schule	-10877
akten	-10878
▁streets	-10879
▁conditioning	-10880
▁49	-10881
▁drugs	-10882
ès	-10883
▁NL	-10884
kehren	-10885
▁politisch	-10886
▁landwirtschaft	-10887
dete	-10888
▁wild	-10889
gebracht	-10890
▁Paper	-10891
▁Untersuchung	-10892
öp	-10893
▁Syr	-10894
▁wiederum	-10895
▁Schwerpunkt	-10896
ameras	-10897
▁launched	-10898
oples	-10899
▁permit	-10900
▁basiert	-10901
▁temperature	-10902
▁konkreten	-10903
uries	-10904
▁Airbus	-10905
plicit	-10906
▁welchen	-10907
▁mini	-10908
▁dishes	-10909
▁significantly	-10910
berecht	-10911
▁Sein	-10912
▁Arm	-10913
▁Zusatz	-10914
erman	-10915
▁units	-10916
▁Sov	-10917
▁Update	-10918
▁spok	-10919
ispiele	-10920
plik	-10921
▁consistent	-10922
▁Bör	-10923
▁felt	-10924
▁Monte	-10925
▁Kooperation	-10926
▁subst	-10927
▁recognise	-10928
▁Vielleicht	-10929
miss	-10930
▁dog	-10931
▁Voraussetzung	-10932
▁Jahrzehn	-10933
▁compensation	-10934
▁96	-10935
▁betreffen	-10936
▁Grundsätze	-10937
rist	-10938
▁Plaza	-10939
▁dinner	-10940
▁finding	-10941
▁Technology	-10942
▁Essen	-10943
▁Roh	-10944
mental	-10945
▁seien	-10946
▁engineering	-10947
iana	-10948
hel	-10949
iating	-10950
▁Geräte	-10951
▁Studie	-10952
▁sights	-10953
▁transform	-10954
iary	-10955
venue	-10956
▁schwar	-10957
▁extension	-10958
▁Verteidigungs	-10959
▁Tibet	-10960
▁approval	-10961
going	-10962
▁Schäden	-10963
▁umfass	-10964
▁Küste	-10965
▁engag	-10966
▁keines	-10967
ieties	-10968
▁Tom	-10969
meister	-10970
itime	-10971
lechter	-10972
▁Action	-10973
▁sprach	-10974
▁fantastic	-10975
▁nötig	-10976
▁sanctions	-10977
▁Exec	-10978
kund	-10979
züg	-10980
▁Leitlinien	-10981
▁expectations	-10982
▁Übereinkommen	-10983
ikte	-10984
ährt	-10985
▁lose	-10986
▁subsidiar	-10987
▁rank	-10988
▁zeich	-10989
▁abhängig	-10990
igence	-10991
▁Allgemeinen	-10992
heber	-10993
▁vir	-10994
stände	-10995
igerung	-10996
▁deiner	-10997
▁dining	-10998
▁genauso	-10999
▁gestern	-11000
geiz	-11001
▁emphasise	-11002
▁Tax	-11003
▁Tw	-11004
▁entlang	-11005
▁rejected	-11006
▁Hong	-11007
▁hervorge	-11008
▁6.	-11009
sc	-11010
▁Fahrzeug	-11011
▁exists	-11012
▁Welcome	-11013
▁Verträge	-11014
▁18.	-11015
▁Profession	-11016
▁stations	-11017
uds	-11018
▁trial	-11019
▁emphasis	-11020
▁Strategien	-11021
▁util	-11022
asters	-11023
▁kompliz	-11024
UM	-11025
▁older	-11026
▁Premier	-11027
uver	-11028
▁Erwä	-11029
▁SME	-11030
▁sleep	-11031
▁wirksam	-11032
netz	-11033
▁Sanktionen	-11034
zza	-11035
▁dict	-11036
▁articles	-11037
HO	-11038
▁proud	-11039
▁entre	-11040
▁helps	-11041
▁Amerika	-11042
▁Austausch	-11043
▁NI	-11044
▁objects	-11045
▁spezial	-11046
▁operators	-11047
lles	-11048
▁Kategorie	-11049
▁MySQL	-11050
▁bezieht	-11051
▁comply	-11052
▁Farb	-11053
▁Heiz	-11054
▁senden	-11055
▁appreciate	-11056
▁Maßnahme	-11057
▁Original	-11058
zubauen	-11059
▁substances	-11060
nd	-11061
bahnhof	-11062
schaffen	-11063
▁wichtiges	-11064
▁vess	-11065
▁zuge	-11066
▁Straf	-11067
▁Westen	-11068
▁Genehm	-11069
▁reicht	-11070
▁entered	-11071
▁Az	-11072
atre	-11073
ichteten	-11074
▁rare	-11075
▁Elect	-11076
ügel	-11077
pers	-11078
▁Dafür	-11079
▁alter	-11080
unktions	-11081
▁relatively	-11082
▁Hans	-11083
▁Beifall	-11084
▁trotzdem	-11085
▁Fer	-11086
▁tests	-11087
▁resolve	-11088
▁verlangen	-11089
▁erhältlich	-11090
apter	-11091
rate	-11092
▁ziemlich	-11093
pak	-11094
theit	-11095
▁außergewöhn	-11096
▁liefern	-11097
▁eur	-11098
▁ye	-11099
▁Offen	-11100
▁beiz	-11101
▁centres	-11102
obe	-11103
▁unl	-11104
▁geist	-11105
▁advantages	-11106
zed	-11107
ischung	-11108
beziehung	-11109
▁Safety	-11110
▁tours	-11111
▁si	-11112
▁maß	-11113
▁Obama	-11114
▁wenden	-11115
uchte	-11116
▁Rule	-11117
▁hoher	-11118
▁od	-11119
▁Refer	-11120
▁umfassenden	-11121
▁sod	-11122
▁Life	-11123
▁refugees	-11124
▁Ministers	-11125
▁texts	-11126
▁Materialien	-11127
▁applicable	-11128
▁Tagung	-11129
▁suffering	-11130
▁delegation	-11131
▁SO	-11132
▁Landwirte	-11133
grad	-11134
▁GNU	-11135
antly	-11136
▁whilst	-11137
▁Robert	-11138
▁museum	-11139
▁conserv	-11140
▁whatever	-11141
größ	-11142
▁Verbrechen	-11143
▁personally	-11144
uj	-11145
▁discharge	-11146
▁vast	-11147
▁pick	-11148
▁Anfragen	-11149
▁italienischen	-11150
▁Weiß	-11151
maschinen	-11152
▁historische	-11153
▁estim	-11154
▁favor	-11155
▁religi	-11156
▁sofern	-11157
▁bekannten	-11158
teen	-11159
uppen	-11160
▁recognised	-11161
▁spring	-11162
▁entertainment	-11163
▁regionale	-11164
▁SC	-11165
schule	-11166
▁Berufs	-11167
▁kommun	-11168
▁Export	-11169
abilität	-11170
▁angep	-11171
▁entspannen	-11172
▁breat	-11173
▁Zentr	-11174
▁Studenten	-11175
▁Umweltschutz	-11176
▁Malt	-11177
▁happens	-11178
▁1991	-11179
▁affairs	-11180
▁proof	-11181
abling	-11182
▁naturally	-11183
▁gather	-11184
▁outdoor	-11185
▁disaster	-11186
▁gepr	-11187
▁Ambiente	-11188
▁respective	-11189
64	-11190
fa	-11191
▁Beweis	-11192
▁latter	-11193
▁Wahrheit	-11194
▁erweitert	-11195
▁gült	-11196
▁threaten	-11197
▁erb	-11198
▁1989	-11199
▁unmittelbar	-11200
▁Amts	-11201
▁Führungs	-11202
▁900	-11203
▁fill	-11204
mechan	-11205
▁involving	-11206
▁arrangements	-11207
▁complic	-11208
▁thorough	-11209
▁valuable	-11210
▁AN	-11211
▁Friend	-11212
▁Beratung	-11213
neter	-11214
▁journey	-11215
▁USD	-11216
füllung	-11217
ito	-11218
▁eröffnet	-11219
vec	-11220
▁renewable	-11221
▁Music	-11222
▁covers	-11223
▁taxes	-11224
▁Ferner	-11225
▁falsch	-11226
▁Gep	-11227
▁Swedish	-11228
▁exclusively	-11229
ätzung	-11230
▁peoples	-11231
▁hostels	-11232
▁handling	-11233
▁bedarf	-11234
▁Fremden	-11235
▁girl	-11236
▁automatic	-11237
ér	-11238
▁Krie	-11239
▁Egypt	-11240
▁führte	-11241
uste	-11242
▁Normen	-11243
▁Product	-11244
▁spectac	-11245
▁Inf	-11246
▁beträgt	-11247
▁commun	-11248
▁OF	-11249
▁Badezimmer	-11250
ikas	-11251
▁Caf	-11252
rot	-11253
▁helped	-11254
▁danger	-11255
▁Strategy	-11256
wareness	-11257
▁weather	-11258
ergie	-11259
▁Papier	-11260
▁entdecken	-11261
▁beschrieben	-11262
▁reichen	-11263
▁Empfehlung	-11264
rechten	-11265
▁Termin	-11266
▁Viertel	-11267
▁künftig	-11268
▁Speicher	-11269
onte	-11270
▁vous	-11271
tellte	-11272
▁Director	-11273
▁Konsequ	-11274
▁mobility	-11275
iessen	-11276
▁geprü	-11277
isory	-11278
▁foll	-11279
▁Lim	-11280
▁creative	-11281
▁Aqu	-11282
gelassen	-11283
▁chain	-11284
▁Eisenbahn	-11285
▁Grad	-11286
fallen	-11287
▁cloth	-11288
otte	-11289
▁Wash	-11290
▁politicians	-11291
zin	-11292
prech	-11293
flächen	-11294
▁Gesicht	-11295
usal	-11296
▁volume	-11297
▁discovered	-11298
▁zusätzlichen	-11299
▁familiar	-11300
wirt	-11301
quellen	-11302
▁kulturelle	-11303
▁confirmed	-11304
▁koordin	-11305
▁Schweden	-11306
▁solve	-11307
▁kommer	-11308
inos	-11309
▁Kamera	-11310
▁opposed	-11311
▁Geschäft	-11312
▁zurückge	-11313
▁exceptional	-11314
fällen	-11315
wechsel	-11316
▁faced	-11317
▁figure	-11318
▁zugänglich	-11319
▁Berichterstat	-11320
▁schönsten	-11321
behörden	-11322
idden	-11323
▁Franc	-11324
▁Burg	-11325
▁diseases	-11326
trächt	-11327
▁2.0	-11328
▁höhere	-11329
▁erscheinen	-11330
▁kurzem	-11331
▁Standort	-11332
▁05	-11333
amerika	-11334
▁verändert	-11335
▁Frü	-11336
▁Agrarpolitik	-11337
▁voller	-11338
kommt	-11339
▁Atom	-11340
▁Empf	-11341
ti	-11342
▁Garantie	-11343
▁Ohne	-11344
▁dans	-11345
ändige	-11346
▁öffnen	-11347
▁looks	-11348
uführen	-11349
plause	-11350
▁offices	-11351
▁laufen	-11352
▁residence	-11353
▁intellectual	-11354
▁List	-11355
▁interessiert	-11356
▁Sat	-11357
▁Mittelpunkt	-11358
▁obtained	-11359
▁wesentliche	-11360
▁64	-11361
ikes	-11362
▁fasc	-11363
▁eigenes	-11364
▁Temperatur	-11365
▁gefördert	-11366
ère	-11367
▁Pia	-11368
▁Dauer	-11369
▁Sund	-11370
iform	-11371
▁Sauna	-11372
▁Ungar	-11373
▁Umgang	-11374
▁combating	-11375
▁Proced	-11376
▁enthus	-11377
▁criticism	-11378
nummer	-11379
▁hilft	-11380
▁repeat	-11381
▁Kann	-11382
▁grundlegenden	-11383
hme	-11384
▁passengers	-11385
▁hervorragende	-11386
wood	-11387
▁Puert	-11388
rüstung	-11389
▁contro	-11390
▁schwierigen	-11391
▁Four	-11392
▁accom	-11393
▁Erinner	-11394
▁directives	-11395
▁Erwartungen	-11396
▁producing	-11397
icherungs	-11398
▁fighting	-11399
▁president	-11400
▁läng	-11401
essene	-11402
ichtbar	-11403
▁bureauc	-11404
▁Bibliothe	-11405
▁geschrieben	-11406
flug	-11407
▁direkte	-11408
oli	-11409
andon	-11410
▁Regime	-11411
▁kombin	-11412
▁laden	-11413
otto	-11414
tragung	-11415
▁Bucht	-11416
▁zuerst	-11417
üren	-11418
proble	-11419
▁ausgezeichnete	-11420
vier	-11421
deten	-11422
▁eigent	-11423
▁Kandidaten	-11424
▁Optim	-11425
▁weshalb	-11426
▁zweifellos	-11427
▁Stift	-11428
▁serves	-11429
▁impressive	-11430
▁besitzen	-11431
▁hit	-11432
▁Einstellung	-11433
AV	-11434
▁7.	-11435
acher	-11436
ugnisse	-11437
td	-11438
▁Massen	-11439
▁determine	-11440
urd	-11441
material	-11442
▁constructive	-11443
▁boat	-11444
ailing	-11445
▁Wirklichkeit	-11446
▁SV	-11447
▁niemals	-11448
▁couple	-11449
▁Luxembourg	-11450
▁weltweiten	-11451
uens	-11452
bauen	-11453
ändler	-11454
▁Stahl	-11455
spruchs	-11456
▁illustr	-11457
▁protecting	-11458
▁Beispiele	-11459
▁controlled	-11460
▁cer	-11461
ati	-11462
eller	-11463
▁außen	-11464
▁160	-11465
▁Ret	-11466
liefert	-11467
▁Bauern	-11468
▁lovely	-11469
▁neuesten	-11470
▁removed	-11471
stehenden	-11472
▁Kohäsions	-11473
chron	-11474
▁reaching	-11475
gendes	-11476
▁leaving	-11477
▁bedeuten	-11478
▁involvement	-11479
▁natürlichen	-11480
▁Ladies	-11481
▁Hindern	-11482
▁Like	-11483
▁jährlich	-11484
▁Mall	-11485
▁Reisen	-11486
▁acquis	-11487
▁eyes	-11488
krit	-11489
reuung	-11490
▁obstac	-11491
▁Verfahrens	-11492
▁strugg	-11493
25	-11494
ani	-11495
▁Anbieter	-11496
acc	-11497
▁Kapaz	-11498
▁Verbesserungen	-11499
▁Dusche	-11500
▁Anschluss	-11501
▁Verk	-11502
▁reden	-11503
▁hospit	-11504
▁temporary	-11505
itäre	-11506
▁Britain	-11507
▁ruhigen	-11508
▁Kommunikations	-11509
▁Block	-11510
▁durchzuführen	-11511
▁Sad	-11512
▁Veranstaltung	-11513
lined	-11514
▁leist	-11515
▁consc	-11516
inken	-11517
ource	-11518
▁millions	-11519
▁Nachfrage	-11520
▁AV	-11521
aste	-11522
▁Ausgabe	-11523
▁awareness	-11524
▁treaty	-11525
▁installiert	-11526
▁ausgezeichneten	-11527
ettbewerbs	-11528
urger	-11529
▁Canada	-11530
azine	-11531
lieben	-11532
abwe	-11533
plans	-11534
▁Ungleich	-11535
▁inzwischen	-11536
uden	-11537
▁Plug	-11538
▁healthy	-11539
▁happening	-11540
▁maintained	-11541
astronom	-11542
▁rapporteurs	-11543
▁firstly	-11544
▁license	-11545
cell	-11546
▁doesn	-11547
▁newly	-11548
▁impression	-11549
actory	-11550
umping	-11551
▁ausz	-11552
handelt	-11553
▁Strukturen	-11554
▁Alternative	-11555
▁cry	-11556
▁amounts	-11557
▁Anti	-11558
▁stake	-11559
roc	-11560
▁George	-11561
kas	-11562
legungen	-11563
▁interessant	-11564
▁Town	-11565
▁bemüht	-11566
▁equally	-11567
▁reserve	-11568
ventionen	-11569
▁Child	-11570
▁Croatia	-11571
▁Websites	-11572
▁Zert	-11573
räften	-11574
rep	-11575
▁getr	-11576
▁Gener	-11577
▁classic	-11578
tedly	-11579
weisung	-11580
▁strategies	-11581
▁stattf	-11582
▁Ausstattung	-11583
ading	-11584
▁Boot	-11585
▁largely	-11586
ml	-11587
▁offenen	-11588
▁preparation	-11589
▁Ath	-11590
▁Mut	-11591
▁contributions	-11592
▁communications	-11593
▁einfachen	-11594
sprache	-11595
▁balcony	-11596
▁Ren	-11597
trieben	-11598
▁Anwendungs	-11599
▁essen	-11600
bildungs	-11601
▁qualifiz	-11602
▁spanischen	-11603
▁17.	-11604
▁cancel	-11605
▁Instead	-11606
trägen	-11607
▁ursprünglichen	-11608
▁ll	-11609
▁kurze	-11610
▁Schulden	-11611
▁schreiben	-11612
▁universal	-11613
einrichtungen	-11614
öd	-11615
▁ethnic	-11616
ällig	-11617
▁mandate	-11618
gesundheit	-11619
▁decorated	-11620
ints	-11621
▁increases	-11622
▁Japanese	-11623
▁Tel	-11624
▁fühlen	-11625
▁gene	-11626
▁Frid	-11627
cap	-11628
▁Nap	-11629
▁Küsten	-11630
oler	-11631
klärung	-11632
▁catalog	-11633
▁renovated	-11634
▁visual	-11635
▁requirement	-11636
iva	-11637
ochen	-11638
▁Klar	-11639
▁Award	-11640
▁letzt	-11641
▁gelegt	-11642
▁einerseits	-11643
▁cab	-11644
▁remote	-11645
▁Meinungs	-11646
stat	-11647
▁Kroat	-11648
▁depth	-11649
▁15.	-11650
▁charges	-11651
▁Browser	-11652
▁organizations	-11653
15	-11654
▁sorgt	-11655
▁remaining	-11656
▁Gipf	-11657
▁fee	-11658
achte	-11659
▁ER	-11660
▁iron	-11661
▁präsentiert	-11662
hi	-11663
▁liberalisation	-11664
▁Jedes	-11665
▁Überzeugung	-11666
komp	-11667
▁beträcht	-11668
▁betreffenden	-11669
▁Audio	-11670
ulich	-11671
▁Wild	-11672
▁surroundings	-11673
apest	-11674
ählte	-11675
▁Executive	-11676
▁KMU	-11677
▁Bulgaria	-11678
▁Bestellung	-11679
▁AM	-11680
▁Year	-11681
dessen	-11682
meldung	-11683
iga	-11684
▁richten	-11685
▁Word	-11686
▁operational	-11687
ingesch	-11688
▁menschlichen	-11689
▁restrictions	-11690
▁sauna	-11691
▁Hostelsclub	-11692
▁dark	-11693
▁issued	-11694
▁verändern	-11695
▁Arme	-11696
▁Ausgangspunkt	-11697
▁Nein	-11698
steuer	-11699
▁album	-11700
▁extraordin	-11701
▁inhabit	-11702
sta	-11703
▁anwes	-11704
▁12.	-11705
▁lobby	-11706
▁debates	-11707
▁detaill	-11708
▁collective	-11709
code	-11710
▁musste	-11711
▁PRO	-11712
▁sor	-11713
▁owner	-11714
entions	-11715
▁abroad	-11716
▁metal	-11717
▁Halb	-11718
▁Aktien	-11719
▁achten	-11720
▁terrorist	-11721
▁FA	-11722
▁grundlegende	-11723
én	-11724
▁stimmt	-11725
▁Geschmack	-11726
▁decis	-11727
▁faith	-11728
▁gewalt	-11729
▁incent	-11730
▁Abkommens	-11731
▁officials	-11732
▁disapp	-11733
▁gold	-11734
▁Punkten	-11735
▁pattern	-11736
ipel	-11737
▁Max	-11738
verletz	-11739
▁Marina	-11740
▁starten	-11741
▁UNO	-11742
▁Their	-11743
▁creates	-11744
uy	-11745
▁inspir	-11746
▁prohib	-11747
▁dich	-11748
▁Polish	-11749
▁ausgesprochen	-11750
▁opinions	-11751
örung	-11752
▁beraten	-11753
▁abgelehnt	-11754
▁organisiert	-11755
▁coher	-11756
▁volunt	-11757
▁messages	-11758
▁Nahrungsmittel	-11759
▁depends	-11760
▁advoc	-11761
nischen	-11762
▁standing	-11763
▁funktionieren	-11764
▁characteristics	-11765
▁GU	-11766
unicip	-11767
▁Gentoo	-11768
▁Through	-11769
▁walls	-11770
▁entscheidend	-11771
▁WLAN	-11772
▁hardware	-11773
▁prove	-11774
▁schließ	-11775
▁höchsten	-11776
▁resolutions	-11777
▁gratulieren	-11778
▁cable	-11779
▁trifft	-11780
▁underm	-11781
reichung	-11782
▁schnelle	-11783
adow	-11784
▁mur	-11785
▁Lager	-11786
▁aufzunehmen	-11787
▁Problems	-11788
▁nob	-11789
▁Internets	-11790
täus	-11791
▁push	-11792
▁soweit	-11793
▁10.	-11794
▁Secret	-11795
▁returned	-11796
▁Network	-11797
▁Projekten	-11798
äll	-11799
▁Mode	-11800
▁artist	-11801
produkte	-11802
▁phen	-11803
▁letzter	-11804
▁contracts	-11805
▁Ski	-11806
gänge	-11807
modell	-11808
▁übernimmt	-11809
▁Abschnitt	-11810
▁Harmonisierung	-11811
hops	-11812
▁Farbe	-11813
▁Hohen	-11814
▁Prüf	-11815
▁Tschech	-11816
▁gezogen	-11817
▁abol	-11818
▁precise	-11819
▁riesigen	-11820
ateful	-11821
▁Stabilitäts	-11822
stood	-11823
▁label	-11824
▁breite	-11825
▁perfekt	-11826
mes	-11827
pet	-11828
▁Brand	-11829
▁Kommun	-11830
▁leistungs	-11831
▁Ware	-11832
▁gebaut	-11833
▁Vice	-11834
▁identify	-11835
rd	-11836
▁sexual	-11837
ilet	-11838
▁Mangel	-11839
▁Food	-11840
▁Investitions	-11841
▁gets	-11842
▁string	-11843
andal	-11844
▁Late	-11845
▁dritte	-11846
▁Entscheidungs	-11847
äumt	-11848
orial	-11849
inational	-11850
▁Brasil	-11851
▁GDP	-11852
ittees	-11853
▁traditions	-11854
kur	-11855
▁meat	-11856
▁smo	-11857
behörde	-11858
▁künftigen	-11859
▁BSE	-11860
▁erlauben	-11861
oni	-11862
▁ignor	-11863
▁buchen	-11864
▁Konsens	-11865
▁Übersetzung	-11866
▁MEPs	-11867
äger	-11868
▁seat	-11869
▁Armen	-11870
▁alarm	-11871
▁verschiedener	-11872
institution	-11873
▁Ausstellung	-11874
▁umzusetzen	-11875
75	-11876
▁Image	-11877
grenzung	-11878
▁Einheit	-11879
comm	-11880
aal	-11881
zellen	-11882
▁Steuern	-11883
▁Partnern	-11884
▁ausgewogen	-11885
gä	-11886
▁NE	-11887
▁sin	-11888
▁Regen	-11889
gemäß	-11890
▁Rent	-11891
▁Angst	-11892
▁Earth	-11893
schirm	-11894
▁Übereinstimmung	-11895
▁aftern	-11896
▁Rumänien	-11897
▁legend	-11898
▁Wähl	-11899
▁battle	-11900
▁seeing	-11901
oria	-11902
▁Klasse	-11903
▁Thomas	-11904
▁recip	-11905
izz	-11906
▁Eis	-11907
inuier	-11908
▁Himm	-11909
▁Verd	-11910
▁Gegend	-11911
▁fordere	-11912
▁ausgeschlossen	-11913
▁veran	-11914
▁gewonnen	-11915
wald	-11916
▁zählt	-11917
▁Procedure	-11918
▁carbon	-11919
▁Spaz	-11920
▁Vater	-11921
bek	-11922
▁Washington	-11923
rohung	-11924
wirkung	-11925
▁Ausführungen	-11926
▁verursacht	-11927
▁einzigartige	-11928
▁youth	-11929
▁Maastr	-11930
▁bekämpfen	-11931
lett	-11932
▁irre	-11933
▁Agricult	-11934
▁topic	-11935
▁involve	-11936
what	-11937
▁tail	-11938
▁appoint	-11939
▁Behinder	-11940
werb	-11941
grenzen	-11942
▁Polizei	-11943
reb	-11944
▁Krisen	-11945
▁regularly	-11946
oßen	-11947
▁dates	-11948
▁Camping	-11949
märkte	-11950
▁Zuständigkeit	-11951
▁gelöst	-11952
▁verlangt	-11953
▁Kilometer	-11954
▁witness	-11955
▁ordnungs	-11956
▁ungefähr	-11957
▁organized	-11958
EE	-11959
eler	-11960
hard	-11961
icip	-11962
▁conflicts	-11963
▁Ga	-11964
anen	-11965
▁Ersatz	-11966
angebot	-11967
▁properties	-11968
▁transportation	-11969
finanz	-11970
uropäischen	-11971
▁uneingesch	-11972
rufen	-11973
▁gender	-11974
▁Zwei	-11975
ätigung	-11976
▁drawing	-11977
rote	-11978
▁lautet	-11979
▁cutting	-11980
CC	-11981
▁Access	-11982
▁schafft	-11983
▁Vorschlägen	-11984
▁Geh	-11985
▁Wolf	-11986
▁Fähigkeiten	-11987
▁gone	-11988
▁reported	-11989
▁abgesch	-11990
▁anstatt	-11991
▁Videos	-11992
▁46	-11993
▁Therm	-11994
wachstum	-11995
▁wettbewerbs	-11996
▁parents	-11997
▁anschließen	-11998
▁beseit	-11999
▁mögliche	-12000
99	-12001
▁thumb	-12002
▁Umfeld	-12003
▁auftreten	-12004
▁customs	-12005
▁Gestaltung	-12006
lastung	-12007
▁Noch	-12008
▁Jer	-12009
▁avec	-12010
▁schwed	-12011
zne	-12012
▁Mitgliedschaft	-12013
iny	-12014
aling	-12015
▁annehmen	-12016
▁Mold	-12017
▁Kreuz	-12018
▁Verbindungen	-12019
▁Verhandlungs	-12020
▁sehe	-12021
▁Inner	-12022
▁Client	-12023
▁Fa	-12024
berge	-12025
▁Komponenten	-12026
▁Buchung	-12027
▁angesehen	-12028
onn	-12029
▁intensiv	-12030
▁facilitate	-12031
▁interior	-12032
▁regulatory	-12033
▁bud	-12034
▁erör	-12035
▁accompan	-12036
ighten	-12037
mitten	-12038
▁Nahen	-12039
▁Quark	-12040
▁define	-12041
▁mitten	-12042
läut	-12043
cohol	-12044
ziplin	-12045
▁conducted	-12046
▁stylish	-12047
▁verständ	-12048
▁recommendation	-12049
govern	-12050
▁bezug	-12051
▁vacation	-12052
▁beabsicht	-12053
▁vereinbar	-12054
▁Krankheiten	-12055
▁Drittländern	-12056
▁awa	-12057
▁41	-12058
freie	-12059
▁amaz	-12060
▁visa	-12061
▁holding	-12062
GB	-12063
▁ball	-12064
▁Festlegung	-12065
▁Schlafzimmer	-12066
▁Straß	-12067
▁bottom	-12068
▁ticket	-12069
▁displayed	-12070
rest	-12071
▁quarter	-12072
▁hundreds	-12073
▁amerikanische	-12074
▁Brenn	-12075
▁zentralen	-12076
▁aufgefordert	-12077
orca	-12078
▁hervorheben	-12079
uliert	-12080
▁Vorbe	-12081
▁Führer	-12082
▁updated	-12083
▁beglückwünschen	-12084
▁kurzen	-12085
▁Programmen	-12086
▁Struct	-12087
▁driver	-12088
▁durchführen	-12089
decken	-12090
▁Symbol	-12091
▁aktuell	-12092
DA	-12093
▁Sonne	-12094
▁career	-12095
▁depending	-12096
▁performed	-12097
istern	-12098
▁einig	-12099
▁reserves	-12100
▁settings	-12101
▁somewhat	-12102
▁connections	-12103
▁enh	-12104
▁rechtlichen	-12105
▁supposed	-12106
▁IV	-12107
▁Geheim	-12108
▁Viet	-12109
▁Ausführung	-12110
▁parliaments	-12111
ef	-12112
▁unfor	-12113
▁Blut	-12114
arma	-12115
macht	-12116
▁bekomm	-12117
▁180	-12118
▁Semin	-12119
▁Schatten	-12120
▁northern	-12121
▁Indones	-12122
▁erheblich	-12123
irk	-12124
uese	-12125
holders	-12126
▁channel	-12127
führte	-12128
▁towns	-12129
onymous	-12130
▁Automobil	-12131
rating	-12132
▁joined	-12133
▁Kontext	-12134
▁zugunsten	-12135
▁parlament	-12136
32	-12137
▁DA	-12138
▁präz	-12139
▁islands	-12140
▁continent	-12141
▁verbringen	-12142
vant	-12143
▁Merc	-12144
▁Ka	-12145
▁stars	-12146
▁Framework	-12147
▁Plattform	-12148
ucher	-12149
▁unent	-12150
▁minority	-12151
erechtigkeit	-12152
▁frequently	-12153
igend	-12154
▁phenomen	-12155
essions	-12156
▁answers	-12157
▁windows	-12158
▁kontinuier	-12159
▁SMEs	-12160
▁worse	-12161
▁zuständigen	-12162
▁faster	-12163
▁contrast	-12164
▁verstanden	-12165
▁suites	-12166
▁Edition	-12167
▁library	-12168
lieb	-12169
▁ought	-12170
▁father	-12171
ete	-12172
rem	-12173
▁Alles	-12174
▁deals	-12175
▁UR	-12176
liste	-12177
▁Fair	-12178
▁cash	-12179
▁Tarif	-12180
▁Verring	-12181
▁Road	-12182
▁trib	-12183
▁emergency	-12184
▁nachhaltigen	-12185
▁View	-12186
▁drug	-12187
▁Anton	-12188
jährige	-12189
▁Kat	-12190
▁finished	-12191
▁LE	-12192
▁tar	-12193
▁sodass	-12194
▁focused	-12195
▁trop	-12196
▁ausgestatte	-12197
▁zut	-12198
▁erwähn	-12199
ypern	-12200
▁abandon	-12201
▁mother	-12202
▁Werbung	-12203
beauftrag	-12204
▁Sony	-12205
▁Cyprus	-12206
standards	-12207
▁Fü	-12208
▁MB	-12209
▁noted	-12210
▁techniques	-12211
▁hostel	-12212
▁CN	-12213
schiedet	-12214
▁demanding	-12215
▁Ziffer	-12216
▁ehrgeiz	-12217
governmental	-12218
zeichnis	-12219
▁bestätigen	-12220
far	-12221
▁Subsid	-12222
▁personnel	-12223
▁außerordentlich	-12224
holen	-12225
▁edge	-12226
▁heat	-12227
▁follows	-12228
stellungs	-12229
▁Protection	-12230
▁Gleichgewicht	-12231
▁verabschiedet	-12232
▁anspruchs	-12233
▁EM	-12234
▁TO	-12235
forschung	-12236
▁früheren	-12237
▁Roll	-12238
▁Trag	-12239
▁mostly	-12240
acion	-12241
▁genet	-12242
▁Taiwan	-12243
lässlich	-12244
▁Geschäfte	-12245
▁appointed	-12246
▁Är	-12247
▁Wird	-12248
▁Hof	-12249
▁shap	-12250
▁Mobile	-12251
▁grateful	-12252
▁castle	-12253
▁geboren	-12254
iera	-12255
▁profile	-12256
▁16.	-12257
▁Blue	-12258
▁refr	-12259
▁react	-12260
▁lounge	-12261
▁Arbeitsplatz	-12262
▁produziert	-12263
▁sac	-12264
ifies	-12265
▁zufolge	-12266
▁Gemeinde	-12267
▁notwendige	-12268
▁8.	-12269
▁sla	-12270
aller	-12271
▁Michel	-12272
▁Mem	-12273
▁Feuer	-12274
▁worry	-12275
▁österreich	-12276
▁interessante	-12277
▁invite	-12278
▁Arbeitsplätzen	-12279
lared	-12280
▁Liter	-12281
▁Polit	-12282
▁Planung	-12283
▁divided	-12284
try	-12285
▁Drittens	-12286
▁Redner	-12287
▁planet	-12288
ivals	-12289
bart	-12290
iour	-12291
▁freiwill	-12292
ergeb	-12293
orama	-12294
▁drivers	-12295
▁ultimately	-12296
aled	-12297
▁Plenum	-12298
▁delighted	-12299
▁Deutschen	-12300
▁James	-12301
▁ausgezeichnet	-12302
но	-12303
ältigen	-12304
▁eastern	-12305
▁entdeck	-12306
▁Budapest	-12307
schluß	-12308
▁index	-12309
▁compatible	-12310
▁Gewicht	-12311
▁Gesetzes	-12312
uers	-12313
▁Kompetenz	-12314
▁valley	-12315
▁welfare	-12316
▁relaxation	-12317
▁palästinens	-12318
▁individuell	-12319
▁ras	-12320
▁proc	-12321
▁Prinzipien	-12322
▁serviert	-12323
ausend	-12324
▁wines	-12325
▁contacts	-12326
erte	-12327
schäd	-12328
▁derart	-12329
▁Games	-12330
▁magnific	-12331
▁frame	-12332
osis	-12333
▁protocol	-12334
▁Aktual	-12335
▁bezahlen	-12336
▁Nic	-12337
▁visible	-12338
▁Partners	-12339
▁electricity	-12340
▁channels	-12341
fuhr	-12342
orie	-12343
▁Naz	-12344
▁arrive	-12345
ci	-12346
▁locations	-12347
▁Holid	-12348
▁geprüft	-12349
▁statistics	-12350
▁Whether	-12351
▁hängt	-12352
▁entrance	-12353
EA	-12354
▁exceed	-12355
▁heritage	-12356
▁PS	-12357
entwurf	-12358
▁Einstellungen	-12359
▁kontakt	-12360
▁Training	-12361
▁Anre	-12362
▁Beiträge	-12363
▁tourists	-12364
▁Ferr	-12365
▁Krimin	-12366
▁Ungarn	-12367
kreis	-12368
▁pieces	-12369
▁Europol	-12370
▁Gerichte	-12371
▁entschlossen	-12372
erten	-12373
▁Yes	-12374
▁Prague	-12375
▁Webseiten	-12376
▁effectiveness	-12377
aine	-12378
züge	-12379
▁ermut	-12380
▁Mexico	-12381
▁wünsch	-12382
▁gewissen	-12383
▁geä	-12384
▁Optionen	-12385
änen	-12386
otive	-12387
▁starts	-12388
▁vorange	-12389
▁pollution	-12390
▁courage	-12391
üler	-12392
▁Adobe	-12393
iox	-12394
▁Vereinbarungen	-12395
ESC	-12396
▁Monetary	-12397
▁afternoon	-12398
▁Author	-12399
maschine	-12400
▁erreichbar	-12401
▁Bö	-12402
usted	-12403
▁verleihen	-12404
▁heating	-12405
▁Werkzeug	-12406
▁migration	-12407
iffen	-12408
▁Hostel	-12409
▁Israeli	-12410
bsp	-12411
▁SL	-12412
▁stored	-12413
▁inhabitants	-12414
cean	-12415
▁exciting	-12416
▁Emissionen	-12417
▁verhindert	-12418
▁flights	-12419
▁declaration	-12420
real	-12421
▁Funds	-12422
gut	-12423
▁derartige	-12424
▁aufnehmen	-12425
har	-12426
örd	-12427
▁Konzer	-12428
▁Portuguese	-12429
▁Außenpolitik	-12430
▁Dev	-12431
▁Phot	-12432
tendlich	-12433
▁tickets	-12434
▁Congress	-12435
▁presents	-12436
▁Ansprü	-12437
▁involves	-12438
▁beschränkt	-12439
▁jetz	-12440
▁Zentralbank	-12441
▁visiting	-12442
▁multinational	-12443
▁Page	-12444
▁Schweizer	-12445
▁abgestimmt	-12446
▁cosy	-12447
▁Schuld	-12448
▁Besonders	-12449
▁entsteht	-12450
▁GB	-12451
▁Automat	-12452
▁gardens	-12453
▁era	-12454
▁Legal	-12455
▁beeindruck	-12456
izer	-12457
▁fab	-12458
kohol	-12459
▁king	-12460
derung	-12461
▁widely	-12462
▁Wünsche	-12463
▁IB	-12464
▁input	-12465
▁Abhäng	-12466
▁Verpack	-12467
▁explore	-12468
▁Beziehung	-12469
на	-12470
▁supplement	-12471
▁Dipl	-12472
▁geräum	-12473
▁virtual	-12474
▁visited	-12475
▁direkten	-12476
igu	-12477
▁oral	-12478
▁verschw	-12479
▁ausgesetzt	-12480
▁Bemerkungen	-12481
▁47	-12482
▁münd	-12483
▁Friday	-12484
▁fas	-12485
▁welchem	-12486
▁Ten	-12487
▁indicated	-12488
▁westlichen	-12489
▁Verringerung	-12490
▁Fleisch	-12491
▁Haftung	-12492
▁Ltd	-12493
▁nine	-12494
▁Terra	-12495
gestellten	-12496
▁bestimmen	-12497
banken	-12498
▁fitness	-12499
▁subsidies	-12500
▁Vict	-12501
▁Vorschlags	-12502
izza	-12503
▁Wei	-12504
erkennen	-12505
▁showing	-12506
▁passiert	-12507
▁cycle	-12508
▁unmöglich	-12509
▁corresponding	-12510
▁Freit	-12511
▁Verbot	-12512
▁Persön	-12513
▁Individ	-12514
▁Copenhagen	-12515
▁entwickelten	-12516
▁geboten	-12517
▁passenger	-12518
▁careful	-12519
▁sorgfältig	-12520
▁understood	-12521
▁Bars	-12522
▁Slovak	-12523
▁Konfigur	-12524
▁Ext	-12525
▁spoken	-12526
▁Baltic	-12527
▁interv	-12528
▁Verteidigung	-12529
werks	-12530
▁protest	-12531
▁printing	-12532
▁preis	-12533
cas	-12534
▁disappe	-12535
▁wollten	-12536
▁trafficking	-12537
▁MA	-12538
othe	-12539
▁1970	-12540
▁Deswegen	-12541
▁Einbeziehung	-12542
▁proved	-12543
▁expansion	-12544
▁Kriegs	-12545
▁catch	-12546
▁collaboration	-12547
▁Nos	-12548
▁Pot	-12549
▁antw	-12550
iented	-12551
ibar	-12552
▁Freiheiten	-12553
▁vollständige	-12554
▁Sar	-12555
▁Mission	-12556
ties	-12557
▁legt	-12558
▁Event	-12559
▁Luf	-12560
▁theme	-12561
▁begrüßt	-12562
▁85	-12563
▁ven	-12564
▁mitge	-12565
▁Faktoren	-12566
▁Subsidiar	-12567
▁Int	-12568
▁accident	-12569
▁Jede	-12570
▁signs	-12571
▁config	-12572
▁Charta	-12573
▁maintaining	-12574
▁wann	-12575
▁kämpfen	-12576
▁Question	-12577
▁Vermögen	-12578
▁Newsletter	-12579
▁Franz	-12580
▁ausgeführt	-12581
TE	-12582
▁Orte	-12583
▁definiert	-12584
log	-12585
▁echten	-12586
▁geltenden	-12587
▁hinzufügen	-12588
ikaner	-12589
▁Tatsächlich	-12590
▁inf	-12591
▁demonstrate	-12592
▁demonstrated	-12593
▁Krankheit	-12594
▁Situ	-12595
▁Balkon	-12596
▁Spazier	-12597
ätigkeiten	-12598
▁Distribution	-12599
▁kostet	-12600
ubs	-12601
▁Pact	-12602
hörigen	-12603
ahrt	-12604
▁flag	-12605
kontrolle	-12606
mung	-12607
▁Neue	-12608
▁spezifischen	-12609
ayer	-12610
▁newsp	-12611
▁Übersetz	-12612
▁functioning	-12613
▁13.	-12614
▁staatlichen	-12615
▁Anmer	-12616
▁tatsäch	-12617
▁Canon	-12618
▁erleichtern	-12619
▁Project	-12620
würdigkeit	-12621
▁bilateral	-12622
▁Schrift	-12623
▁Gesellschaften	-12624
▁gespeichert	-12625
▁investors	-12626
▁Sorgen	-12627
▁2012	-12628
etzten	-12629
▁Milch	-12630
▁commission	-12631
▁Made	-12632
▁Dynam	-12633
▁kurzfrist	-12634
tele	-12635
▁Erholung	-12636
inuten	-12637
ausschuß	-12638
▁copyright	-12639
▁Einwohner	-12640
▁Gerät	-12641
▁lebens	-12642
▁Zypern	-12643
▁verwand	-12644
▁Gründung	-12645
agers	-12646
▁exklus	-12647
▁52	-12648
passen	-12649
▁Stimmen	-12650
▁facility	-12651
▁individuelle	-12652
▁smooth	-12653
▁Gespräche	-12654
▁raw	-12655
isses	-12656
▁verehrte	-12657
ación	-12658
icans	-12659
▁Infl	-12660
▁Wesent	-12661
▁Golden	-12662
▁solange	-12663
immungs	-12664
▁Maastricht	-12665
mens	-12666
▁alcohol	-12667
weile	-12668
▁settlement	-12669
ochter	-12670
▁discip	-12671
▁privat	-12672
▁vorlegen	-12673
häuser	-12674
diction	-12675
▁Kräfte	-12676
▁termin	-12677
▁documentation	-12678
▁Beam	-12679
▁sad	-12680
▁Conc	-12681
▁accompanied	-12682
icer	-12683
▁700	-12684
▁Dass	-12685
▁Kaffee	-12686
ées	-12687
▁Genau	-12688
lichung	-12689
kter	-12690
▁didn	-12691
▁Single	-12692
▁Interess	-12693
▁spectacular	-12694
▁Moz	-12695
▁Sche	-12696
▁dream	-12697
mäßigen	-12698
▁ferner	-12699
▁gezwungen	-12700
▁Gi	-12701
günst	-12702
▁Indian	-12703
scheidet	-12704
▁Mobilität	-12705
▁department	-12706
ammeln	-12707
attung	-12708
▁nahezu	-12709
86	-12710
▁proven	-12711
▁western	-12712
▁restruct	-12713
▁corruption	-12714
▁Kra	-12715
▁Kongress	-12716
▁rub	-12717
▁Gepäck	-12718
örderung	-12719
▁labe	-12720
▁Works	-12721
▁rational	-12722
▁resistance	-12723
▁2,	-12724
rical	-12725
imedia	-12726
vertre	-12727
▁autonom	-12728
▁committees	-12729
▁plenty	-12730
▁Chair	-12731
▁fertig	-12732
unning	-12733
▁confer	-12734
▁Vize	-12735
▁citizen	-12736
▁Who	-12737
▁angemessene	-12738
etzte	-12739
▁definitely	-12740
▁Reis	-12741
▁Asien	-12742
▁bemühen	-12743
▁Marktes	-12744
▁imposed	-12745
▁9.	-12746
▁breit	-12747
▁distingu	-12748
▁Alexander	-12749
▁Versand	-12750
aser	-12751
estr	-12752
▁Vietnam	-12753
▁heutige	-12754
center	-12755
▁awarded	-12756
▁beschleun	-12757
einen	-12758
holm	-12759
undert	-12760
▁Provinz	-12761
▁containing	-12762
▁configuration	-12763
ye	-12764
pel	-12765
mäßige	-12766
▁Email	-12767
▁erinnert	-12768
▁Politiken	-12769
▁concluded	-12770
▁recorded	-12771
▁Frühstücksb	-12772
▁Wart	-12773
▁Perhaps	-12774
ulf	-12775
▁forum	-12776
▁höheren	-12777
▁ongoing	-12778
▁educational	-12779
geräte	-12780
▁behaviour	-12781
ulin	-12782
ameters	-12783
▁incomp	-12784
schm	-12785
▁Werke	-12786
ignet	-12787
▁Amendments	-12788
car	-12789
▁Bedien	-12790
▁israel	-12791
▁speaker	-12792
▁Autobahn	-12793
gemeinschaft	-12794
nitten	-12795
▁jegliche	-12796
tein	-12797
▁übrigens	-12798
▁foundation	-12799
EF	-12800
fragt	-12801
▁Identität	-12802
▁Ib	-12803
▁Legisl	-12804
teilungen	-12805
ulpt	-12806
▁ped	-12807
▁usual	-12808
▁gallery	-12809
ruh	-12810
▁sugar	-12811
▁phrase	-12812
arische	-12813
▁occasions	-12814
▁Ku	-12815
▁forg	-12816
▁flu	-12817
▁ice	-12818
▁explicit	-12819
▁BIP	-12820
▁verbind	-12821
▁Curr	-12822
▁Kabel	-12823
verhält	-12824
▁Hungary	-12825
▁replaced	-12826
▁streng	-12827
▁Sollten	-12828
▁possibly	-12829
▁Description	-12830
▁pursu	-12831
▁Soviet	-12832
▁Zielen	-12833
▁Belgium	-12834
▁manufacturer	-12835
▁Balkan	-12836
▁Applause	-12837
usse	-12838
▁fem	-12839
▁sah	-12840
▁Vorgehen	-12841
▁Northern	-12842
sparte	-12843
▁replace	-12844
▁judicial	-12845
▁Ker	-12846
▁überras	-12847
▁respected	-12848
▁minorities	-12849
▁nachzu	-12850
AB	-12851
▁Mikro	-12852
▁manager	-12853
▁verdient	-12854
▁inflation	-12855
▁Medik	-12856
wege	-12857
okument	-12858
▁bilater	-12859
▁bestehende	-12860
▁constitution	-12861
▁Ill	-12862
▁crimes	-12863
▁Fernseh	-12864
▁Preisen	-12865
▁desired	-12866
▁Hardware	-12867
▁Untersuchungen	-12868
usehen	-12869
ography	-12870
▁grundsätzlich	-12871
▁functional	-12872
aux	-12873
cepts	-12874
▁verringern	-12875
▁HTML	-12876
gerufen	-12877
▁renown	-12878
▁plen	-12879
ughter	-12880
▁Salzburg	-12881
▁films	-12882
▁tackle	-12883
▁competent	-12884
▁Hen	-12885
▁yes	-12886
▁Objekt	-12887
▁routes	-12888
▁Chancen	-12889
ifizieren	-12890
▁gegebenen	-12891
▁DS	-12892
dert	-12893
iforn	-12894
▁milk	-12895
▁chinesischen	-12896
iences	-12897
▁nights	-12898
pap	-12899
▁Bord	-12900
langen	-12901
▁prosper	-12902
▁Zür	-12903
▁exit	-12904
▁traditionelle	-12905
▁einfacher	-12906
urlaub	-12907
▁sen	-12908
▁Look	-12909
▁behalten	-12910
▁Dal	-12911
▁Detail	-12912
▁Kapitel	-12913
▁oriented	-12914
▁Quad	-12915
▁woman	-12916
▁konkret	-12917
▁Palästinens	-12918
▁lit	-12919
weite	-12920
▁Host	-12921
▁Versionen	-12922
▁nunmehr	-12923
OW	-12924
▁Oder	-12925
▁Zwecke	-12926
▁certific	-12927
▁surf	-12928
▁sharing	-12929
▁verurteilt	-12930
▁Cup	-12931
▁Begr	-12932
region	-12933
▁immigrants	-12934
klass	-12935
▁firms	-12936
▁mittler	-12937
ни	-12938
▁thr	-12939
sieht	-12940
▁Educ	-12941
▁Sollte	-12942
itra	-12943
▁Var	-12944
▁ruhig	-12945
▁assume	-12946
▁Insbesondere	-12947
▁seas	-12948
▁Women	-12949
▁beliebt	-12950
▁Besorgnis	-12951
▁licens	-12952
▁oblige	-12953
▁EZ	-12954
bach	-12955
▁Respekt	-12956
▁prest	-12957
beziehungen	-12958
▁berechtigt	-12959
▁BMW	-12960
▁professionals	-12961
ror	-12962
hone	-12963
▁neun	-12964
▁installieren	-12965
▁einheitlichen	-12966
▁horizont	-12967
▁Laut	-12968
▁gewährt	-12969
▁Einwanderung	-12970
▁Konto	-12971
▁Kais	-12972
demark	-12973
▁verbinden	-12974
tung	-12975
▁correctly	-12976
▁Mitarbeitern	-12977
▁AKP	-12978
▁organisieren	-12979
▁beschäftigen	-12980
▁rapidly	-12981
ulen	-12982
▁Bett	-12983
▁weekend	-12984
ás	-12985
▁luxurious	-12986
▁SAP	-12987
▁Alpen	-12988
▁Mrd	-12989
▁scheme	-12990
▁enjoyed	-12991
▁CF	-12992
ammt	-12993
▁arrived	-12994
▁Nob	-12995
▁sending	-12996
▁Malta	-12997
▁ersetzt	-12998
hängen	-12999
▁Verbreitung	-13000
▁determination	-13001
▁gespielt	-13002
▁sit	-13003
▁facts	-13004
▁0,	-13005
emble	-13006
▁Niger	-13007
▁Tochter	-13008
▁lots	-13009
▁subsidiarity	-13010
▁overcome	-13011
üne	-13012
liegt	-13013
▁Donner	-13014
▁Puerto	-13015
mpath	-13016
▁Thurs	-13017
▁satisfied	-13018
▁transactions	-13019
öße	-13020
▁Gefahren	-13021
TER	-13022
llo	-13023
▁marquis	-13024
▁vorstellen	-13025
▁vorhandenen	-13026
▁globalisation	-13027
▁Leon	-13028
▁maritime	-13029
▁bla	-13030
▁vorzu	-13031
uminium	-13032
▁letztlich	-13033
▁Energien	-13034
ede	-13035
▁VAT	-13036
▁tea	-13037
▁inklusive	-13038
ju	-13039
▁Spaß	-13040
▁nutz	-13041
▁diagn	-13042
▁flood	-13043
▁Gang	-13044
schaffung	-13045
▁individuellen	-13046
herr	-13047
▁Ech	-13048
▁Apple	-13049
▁Konstru	-13050
▁Kab	-13051
prozesses	-13052
▁distributed	-13053
▁Freunden	-13054
▁gestaltet	-13055
▁bright	-13056
▁destruction	-13057
▁credibility	-13058
▁erfolgreiche	-13059
ockt	-13060
▁fuer	-13061
▁Betrag	-13062
▁Kirk	-13063
▁adults	-13064
▁Prom	-13065
▁deposit	-13066
▁Argument	-13067
▁sud	-13068
anke	-13069
otic	-13070
▁centuries	-13071
light	-13072
▁minister	-13073
bekämpfung	-13074
▁Erzeugnisse	-13075
UNG	-13076
örter	-13077
▁rental	-13078
hrten	-13079
llers	-13080
▁Tsch	-13081
▁erläut	-13082
▁Within	-13083
▁Perform	-13084
▁Urheber	-13085
paket	-13086
▁popul	-13087
▁formed	-13088
▁Vel	-13089
problem	-13090
▁14.	-13091
▁partly	-13092
▁component	-13093
erts	-13094
vertrag	-13095
▁Following	-13096
▁transatlant	-13097
IDS	-13098
▁Bug	-13099
▁lists	-13100
▁declared	-13101
▁magnificent	-13102
▁Bemerkung	-13103
kommunik	-13104
▁suppliers	-13105
▁Zone	-13106
reffen	-13107
viertel	-13108
▁Content	-13109
▁entscheidende	-13110
▁Bang	-13111
▁ing	-13112
▁rul	-13113
entwick	-13114
periode	-13115
▁Charles	-13116
▁Hungarian	-13117
▁unverzüglich	-13118
aun	-13119
gess	-13120
stoß	-13121
▁mac	-13122
▁Vene	-13123
▁Water	-13124
programms	-13125
betrieb	-13126
erin	-13127
▁Desk	-13128
▁Wetter	-13129
▁domain	-13130
partment	-13131
▁Mini	-13132
▁Att	-13133
athol	-13134
▁wechs	-13135
▁bekräft	-13136
▁ursprünglich	-13137
anspr	-13138
rates	-13139
▁Structural	-13140
▁constitutional	-13141
Ro	-13142
▁uncertain	-13143
▁Vorstellung	-13144
▁inj	-13145
▁Staff	-13146
▁luxuri	-13147
▁aussprechen	-13148
▁Rechnungshof	-13149
▁Satz	-13150
zneimit	-13151
▁Commer	-13152
gor	-13153
▁coal	-13154
▁vari	-13155
wertet	-13156
▁Atlantic	-13157
▁Philosoph	-13158
▁Konsult	-13159
▁Verlust	-13160
▁Job	-13161
yside	-13162
▁beruht	-13163
▁intelligent	-13164
▁jenen	-13165
▁shares	-13166
▁ökonom	-13167
▁deutsch	-13168
▁slightly	-13169
DR	-13170
agg	-13171
▁rechtzeit	-13172
▁Sav	-13173
▁unfair	-13174
sse	-13175
▁Satur	-13176
▁angegebenen	-13177
idem	-13178
zneimittel	-13179
▁stehenden	-13180
▁Sunday	-13181
▁schlägt	-13182
▁stronger	-13183
▁addresses	-13184
ained	-13185
▁miles	-13186
▁assets	-13187
▁britische	-13188
▁Wohnung	-13189
▁adopting	-13190
▁Nachricht	-13191
▁generated	-13192
dauer	-13193
lehnung	-13194
▁Auge	-13195
▁division	-13196
▁Lok	-13197
▁dürfte	-13198
▁Parkplatz	-13199
uster	-13200
teils	-13201
▁root	-13202
oub	-13203
▁fehlt	-13204
▁courts	-13205
▁theoret	-13206
▁Kontrollen	-13207
▁extraordinary	-13208
▁taxation	-13209
▁Verlauf	-13210
▁Schönheit	-13211
▁54	-13212
▁providers	-13213
▁Vern	-13214
35	-13215
▁Städten	-13216
▁Gaza	-13217
▁died	-13218
▁Kopenhagen	-13219
▁klaren	-13220
▁russischen	-13221
ardo	-13222
▁dign	-13223
▁Reduz	-13224
▁verwirk	-13225
▁McC	-13226
▁großzüg	-13227
chnung	-13228
▁plays	-13229
▁Empfang	-13230
▁Resolution	-13231
▁Given	-13232
▁Lounge	-13233
▁suspend	-13234
▁Marke	-13235
▁Festpl	-13236
▁niedrig	-13237
uben	-13238
▁Tip	-13239
gelöst	-13240
▁angewand	-13241
ativer	-13242
▁semin	-13243
▁updates	-13244
▁proposes	-13245
▁Dolom	-13246
▁verstärken	-13247
▁Schle	-13248
▁saving	-13249
▁kamen	-13250
▁substance	-13251
▁Klaus	-13252
▁plenary	-13253
▁thousand	-13254
▁verkaufen	-13255
▁consent	-13256
▁identified	-13257
▁preparing	-13258
▁reduzieren	-13259
ündete	-13260
▁owned	-13261
etheless	-13262
▁Balkans	-13263
▁arab	-13264
▁wiederholen	-13265
oden	-13266
▁ACP	-13267
▁stil	-13268
▁suit	-13269
▁considering	-13270
▁eingereicht	-13271
▁Sektoren	-13272
BS	-13273
ivalent	-13274
▁Lieferung	-13275
ührt	-13276
▁authentic	-13277
icing	-13278
▁artistic	-13279
▁unn	-13280
▁Meister	-13281
▁Schulen	-13282
athem	-13283
MA	-13284
rown	-13285
▁Plus	-13286
▁Frie	-13287
gested	-13288
▁roads	-13289
▁encouraging	-13290
▁Ram	-13291
▁Investment	-13292
zonen	-13293
▁Rena	-13294
▁Exchange	-13295
lic	-13296
▁äußern	-13297
wählen	-13298
▁ensures	-13299
ziele	-13300
▁brut	-13301
systeme	-13302
▁Valley	-13303
▁Ara	-13304
▁Poly	-13305
▁drinks	-13306
▁Thirdly	-13307
▁amen	-13308
▁sensible	-13309
▁Übergangs	-13310
▁Betracht	-13311
opt	-13312
jan	-13313
▁resolved	-13314
▁everyday	-13315
▁Por	-13316
▁jung	-13317
▁toba	-13318
▁Putin	-13319
▁Beweg	-13320
▁encoun	-13321
▁Vide	-13322
▁erhielt	-13323
▁Flugzeug	-13324
▁Systemen	-13325
wirkt	-13326
▁actively	-13327
▁university	-13328
▁erfolgreichen	-13329
prene	-13330
▁Defiz	-13331
dienste	-13332
IX	-13333
▁info	-13334
regeln	-13335
aya	-13336
nex	-13337
▁Riv	-13338
▁partial	-13339
▁Fundamental	-13340
▁Sn	-13341
▁Zusätzlich	-13342
▁bestimmter	-13343
xy	-13344
▁verbesser	-13345
▁vorbereitet	-13346
idet	-13347
useums	-13348
▁Nummer	-13349
▁inclusion	-13350
▁vermitteln	-13351
▁Rechtsstaat	-13352
▁Traum	-13353
unications	-13354
rt	-13355
▁ou	-13356
▁Lobby	-13357
ographic	-13358
▁Bereitstellung	-13359
cont	-13360
▁Treat	-13361
zentren	-13362
▁Orient	-13363
▁assure	-13364
▁vieles	-13365
▁afr	-13366
gänger	-13367
▁Fußball	-13368
▁empfangen	-13369
▁EF	-13370
▁Männern	-13371
▁Zusch	-13372
▁musical	-13373
▁Erstellung	-13374
▁Gegenstand	-13375
informationen	-13376
▁jener	-13377
▁examine	-13378
werken	-13379
▁topics	-13380
▁Without	-13381
▁concepts	-13382
behandlung	-13383
▁Train	-13384
stes	-13385
▁poten	-13386
▁Ausmaß	-13387
▁Assembly	-13388
▁Professor	-13389
ieb	-13390
oration	-13391
▁emotion	-13392
hips	-13393
ueller	-13394
fined	-13395
▁lift	-13396
▁Genehmigung	-13397
▁TR	-13398
▁eröff	-13399
▁erhebliche	-13400
stud	-13401
▁Nam	-13402
▁Sudan	-13403
kehrt	-13404
▁Kreis	-13405
..	-13406
▁army	-13407
▁Cho	-13408
▁Sozialdem	-13409
agent	-13410
▁Thursday	-13411
▁Hamas	-13412
▁deleg	-13413
▁euros	-13414
▁spoke	-13415
▁upper	-13416
waffen	-13417
▁Belast	-13418
▁französische	-13419
▁Gericht	-13420
▁eingehalten	-13421
quar	-13422
▁ang	-13423
▁duties	-13424
▁Stutt	-13425
▁wrote	-13426
▁handle	-13427
▁carrying	-13428
▁dependent	-13429
▁Rechtsgrundlage	-13430
▁auseinander	-13431
anw	-13432
▁fourth	-13433
▁wunderschönen	-13434
▁Ernähr	-13435
▁Geträn	-13436
▁kleines	-13437
▁packaging	-13438
▁vary	-13439
▁strategischen	-13440
▁Geschwindigkeit	-13441
▁nahm	-13442
▁Travel	-13443
▁Präsent	-13444
▁Cla	-13445
dis	-13446
oles	-13447
▁finish	-13448
bereiten	-13449
▁verantwortungs	-13450
▁Wal	-13451
uggage	-13452
▁Consult	-13453
▁anwesend	-13454
▁renowned	-13455
▁Aben	-13456
▁decisive	-13457
▁SE	-13458
care	-13459
▁Mur	-13460
▁enhance	-13461
▁Wohlstand	-13462
▁Erlebnis	-13463
▁emerging	-13464
▁employed	-13465
▁Filter	-13466
▁Pen	-13467
▁Schluß	-13468
▁tobacco	-13469
menade	-13470
▁lokale	-13471
acks	-13472
▁großem	-13473
▁subjects	-13474
▁eventually	-13475
LAF	-13476
▁Freitag	-13477
▁aktivieren	-13478
▁CR	-13479
▁XP	-13480
ilding	-13481
▁Nachhalt	-13482
ässig	-13483
schefs	-13484
▁proposing	-13485
▁Federation	-13486
UL	-13487
▁Rab	-13488
freien	-13489
▁song	-13490
▁applying	-13491
ín	-13492
strafe	-13493
plications	-13494
▁burn	-13495
▁desk	-13496
▁solely	-13497
▁unvergess	-13498
▁beigetragen	-13499
▁Hot	-13500
▁digit	-13501
▁Pakete	-13502
▁zurückzu	-13503
iegelt	-13504
▁voluntary	-13505
▁supplies	-13506
▁beteiligen	-13507
▁countryside	-13508
▁einzigartigen	-13509
▁nevertheless	-13510
räumen	-13511
▁elektronischen	-13512
endo	-13513
▁Holiday	-13514
▁shipping	-13515
prä	-13516
▁Stras	-13517
▁uniform	-13518
▁director	-13519
▁description	-13520
▁theory	-13521
ila	-13522
▁lessons	-13523
iets	-13524
▁umge	-13525
▁Among	-13526
▁Quellen	-13527
▁stren	-13528
ziellen	-13529
lösungen	-13530
▁verboten	-13531
▁integriert	-13532
ademy	-13533
▁stolz	-13534
▁Sicherung	-13535
▁departure	-13536
▁suggestions	-13537
19	-13538
▁Domin	-13539
▁bedauer	-13540
▁beobachten	-13541
▁liked	-13542
▁Allian	-13543
▁Quality	-13544
▁vorrang	-13545
▁komme	-13546
▁insist	-13547
▁AS	-13548
▁OR	-13549
▁Monday	-13550
▁gekenn	-13551
▁appeared	-13552
aue	-13553
▁unforget	-13554
WF	-13555
ingly	-13556
while	-13557
▁Bulgarien	-13558
▁Beschlüsse	-13559
▁Castle	-13560
▁villages	-13561
▁Sohn	-13562
amo	-13563
▁winning	-13564
▁Amt	-13565
▁vulnerable	-13566
vol	-13567
▁Mov	-13568
▁ships	-13569
▁filled	-13570
▁decre	-13571
▁Modelle	-13572
▁bislang	-13573
▁liefert	-13574
▁supplier	-13575
▁Full	-13576
▁Metro	-13577
▁module	-13578
▁Besides	-13579
▁Positionen	-13580
▁Thail	-13581
▁della	-13582
▁Tennis	-13583
▁langsam	-13584
▁entscheidender	-13585
gehens	-13586
▁legitimate	-13587
▁anbel	-13588
▁defect	-13589
politische	-13590
▁tast	-13591
etto	-13592
onien	-13593
▁Jung	-13594
▁Konkurr	-13595
▁Schüler	-13596
▁Bedrohung	-13597
▁susp	-13598
▁Next	-13599
▁shock	-13600
service	-13601
rob	-13602
▁verbindet	-13603
▁gearbeitet	-13604
▁ausgerichtet	-13605
▁squ	-13606
ented	-13607
▁abuse	-13608
▁impose	-13609
▁relie	-13610
▁absence	-13611
▁Kroatien	-13612
▁Sind	-13613
▁Captain	-13614
▁Katastrophe	-13615
▁greatly	-13616
▁elsewhere	-13617
▁philosophy	-13618
auten	-13619
▁AIDS	-13620
▁Darum	-13621
ausschau	-13622
rel	-13623
▁Eingang	-13624
▁hyp	-13625
▁Ansichten	-13626
▁specified	-13627
dorf	-13628
▁warn	-13629
▁teams	-13630
▁Sonntag	-13631
▁Common	-13632
▁patient	-13633
▁hyd	-13634
gebiete	-13635
▁Addition	-13636
▁verkauft	-13637
iefer	-13638
steigen	-13639
▁Budgets	-13640
▁betreffend	-13641
uchs	-13642
▁Schon	-13643
▁anbelangt	-13644
▁Glaubwürdigkeit	-13645
läuft	-13646
▁solches	-13647
▁Kontakte	-13648
▁schicken	-13649
.20	-13650
▁scre	-13651
▁enabled	-13652
▁erzeugt	-13653
ood	-13654
ville	-13655
▁roof	-13656
▁Saison	-13657
TS	-13658
▁Kühl	-13659
leiter	-13660
▁bereitgestellt	-13661
PC	-13662
idad	-13663
athedral	-13664
▁reservations	-13665
▁Game	-13666
▁iPhone	-13667
▁Mountain	-13668
▁genannte	-13669
chst	-13670
deckt	-13671
▁Staates	-13672
▁interpretation	-13673
▁Bege	-13674
ieden	-13675
▁Guests	-13676
▁abziel	-13677
▁delicious	-13678
▁Cir	-13679
▁kilomet	-13680
▁leichter	-13681
▁boost	-13682
▁doors	-13683
▁narrow	-13684
▁zuständig	-13685
▁satisfaction	-13686
igert	-13687
äusern	-13688
▁gained	-13689
▁beantworten	-13690
▁sounds	-13691
bereichen	-13692
▁Einkommen	-13693
▁Gehm	-13694
▁Beste	-13695
▁representation	-13696
▁regarded	-13697
▁tennis	-13698
▁simult	-13699
▁Überlegungen	-13700
▁bridge	-13701
▁preced	-13702
▁excessive	-13703
▁Pfer	-13704
▁Entfern	-13705
pft	-13706
▁Kulturen	-13707
▁batter	-13708
▁Agriculture	-13709
▁poly	-13710
▁geziel	-13711
▁Strasbourg	-13712
rog	-13713
▁panoram	-13714
▁acknowledge	-13715
▁Konsequenzen	-13716
gart	-13717
iki	-13718
▁Anlass	-13719
▁übersch	-13720
▁Kollegin	-13721
▁Passwort	-13722
▁disabled	-13723
▁comparison	-13724
▁Gewährleistung	-13725
oured	-13726
▁Budd	-13727
▁tables	-13728
▁Ly	-13729
▁Prozesse	-13730
▁Luxus	-13731
▁Having	-13732
▁receiving	-13733
▁offiziellen	-13734
edy	-13735
endar	-13736
itim	-13737
▁difficulty	-13738
▁Pfe	-13739
▁fan	-13740
▁scene	-13741
▁colours	-13742
▁personen	-13743
NA	-13744
lings	-13745
▁Rio	-13746
▁Space	-13747
▁verwe	-13748
▁Herbst	-13749
▁Based	-13750
▁sozialer	-13751
werben	-13752
▁weist	-13753
urteilung	-13754
▁boot	-13755
▁Suiten	-13756
▁deficit	-13757
oom	-13758
▁Pac	-13759
▁acting	-13760
▁manual	-13761
▁invited	-13762
▁überprüft	-13763
▁Güter	-13764
▁Stoffe	-13765
▁Treib	-13766
▁farming	-13767
▁Cub	-13768
▁Wäl	-13769
▁nörd	-13770
▁spons	-13771
14	-13772
▁wireless	-13773
▁Verg	-13774
▁genügend	-13775
▁trademark	-13776
west	-13777
seite	-13778
▁Still	-13779
▁skiing	-13780
▁Wissens	-13781
▁inmitten	-13782
▁Ec	-13783
down	-13784
▁filter	-13785
▁stammen	-13786
▁fu	-13787
ofern	-13788
▁konfront	-13789
li	-13790
ixel	-13791
▁ähnlich	-13792
sph	-13793
▁Zuge	-13794
▁Ankunft	-13795
▁Schwimm	-13796
▁realistic	-13797
▁Finanzierungs	-13798
▁Hat	-13799
town	-13800
▁Wählen	-13801
▁wohnen	-13802
▁Übrigen	-13803
▁letztendlich	-13804
führungs	-13805
▁housing	-13806
▁Institut	-13807
▁forests	-13808
▁suggested	-13809
▁Donnerstag	-13810
▁Vizepräsident	-13811
▁53	-13812
▁voranz	-13813
▁exports	-13814
▁revision	-13815
orer	-13816
▁erz	-13817
▁Eigentum	-13818
▁189	-13819
▁Verzö	-13820
▁periods	-13821
16	-13822
▁Sz	-13823
glichkeit	-13824
▁Beschwer	-13825
▁Funktions	-13826
▁weitgehend	-13827
▁Unternehmer	-13828
▁ju	-13829
▁gehe	-13830
▁attempts	-13831
▁resource	-13832
▁Playa	-13833
▁Vorhaben	-13834
▁cleaning	-13835
▁Tools	-13836
▁Gerade	-13837
▁aktive	-13838
äßt	-13839
▁kreat	-13840
▁herrscht	-13841
▁wiederholt	-13842
▁adm	-13843
▁hart	-13844
▁Place	-13845
▁innen	-13846
▁paint	-13847
▁football	-13848
▁reaction	-13849
▁glück	-13850
▁Arzneimittel	-13851
▁Leiden	-13852
▁einzigart	-13853
▁verteidigen	-13854
▁pas	-13855
weilen	-13856
▁Mittag	-13857
▁Hom	-13858
▁Augenblick	-13859
▁IF	-13860
achts	-13861
▁horse	-13862
▁mittleren	-13863
▁welcoming	-13864
то	-13865
▁Key	-13866
liehen	-13867
▁ports	-13868
▁erstmals	-13869
▁Erfüllung	-13870
▁infr	-13871
ordnungen	-13872
▁breach	-13873
technologie	-13874
▁Sem	-13875
▁federal	-13876
▁Ce	-13877
▁kern	-13878
▁hinweg	-13879
▁mussten	-13880
▁hill	-13881
▁murder	-13882
▁passion	-13883
▁directory	-13884
▁roll	-13885
alerie	-13886
▁Schiffe	-13887
▁breiten	-13888
▁Konzern	-13889
▁confirmation	-13890
fangen	-13891
iensten	-13892
effizienz	-13893
▁Anstieg	-13894
▁warrant	-13895
▁Situated	-13896
▁festival	-13897
lager	-13898
▁Family	-13899
▁pursue	-13900
▁Potenzial	-13901
pol	-13902
▁japan	-13903
▁complement	-13904
▁paying	-13905
▁Gehminuten	-13906
▁entwickelte	-13907
enia	-13908
▁1.5	-13909
▁permitted	-13910
▁freundlich	-13911
▁Reduzierung	-13912
tty	-13913
▁ausgeb	-13914
orse	-13915
leute	-13916
zenten	-13917
hört	-13918
Rooms	-13919
▁machte	-13920
▁Mak	-13921
agements	-13922
folgung	-13923
▁savings	-13924
▁Anwender	-13925
▁empfohlen	-13926
▁spezifische	-13927
▁municip	-13928
▁religion	-13929
▁banking	-13930
▁mi	-13931
▁arguments	-13932
▁Verletzung	-13933
usstsein	-13934
▁Urlaubs	-13935
▁overview	-13936
▁Textil	-13937
▁erlebt	-13938
▁Gerechtigkeit	-13939
wahlen	-13940
▁Porto	-13941
rechter	-13942
▁ernsthaft	-13943
oche	-13944
▁trips	-13945
geschichte	-13946
▁Schnitts	-13947
chester	-13948
▁leaves	-13949
▁Praktiken	-13950
▁vorzulegen	-13951
▁unforgettable	-13952
▁Haushaltsplan	-13953
iess	-13954
▁tend	-13955
▁destroyed	-13956
▁blind	-13957
▁SS	-13958
▁Line	-13959
▁diesel	-13960
GE	-13961
▁allzu	-13962
▁Betten	-13963
▁hierbei	-13964
▁publication	-13965
▁Verarbeitung	-13966
▁optimale	-13967
mpt	-13968
udi	-13969
▁Latein	-13970
CP	-13971
anne	-13972
▁reput	-13973
▁enabling	-13974
aßt	-13975
organ	-13976
▁schwe	-13977
▁Umsatz	-13978
▁Alger	-13979
▁refers	-13980
aga	-13981
▁constitute	-13982
▁cul	-13983
▁Belgien	-13984
▁Entlastung	-13985
▁Emb	-13986
▁reduziert	-13987
▁Brasilien	-13988
niveau	-13989
▁cooperate	-13990
ounted	-13991
▁Fahrzeuge	-13992
water	-13993
▁grav	-13994
▁Fahrt	-13995
▁obliged	-13996
▁betreiben	-13997
afrika	-13998
recher	-13999
ping	-14000
mbuds	-14001
▁tree	-14002
▁investieren	-14003
vi	-14004
riebe	-14005
▁tritt	-14006
▁Metall	-14007
▁tranqu	-14008
▁Stockholm	-14009
▁angepasst	-14010
schriften	-14011
▁instructions	-14012
▁eat	-14013
ierender	-14014
▁erwähnen	-14015
▁Li	-14016
▁Jos	-14017
▁bekommt	-14018
weisungen	-14019
▁lived	-14020
▁Finland	-14021
▁Islands	-14022
▁versichern	-14023
werts	-14024
▁Vort	-14025
▁Tourism	-14026
▁Wed	-14027
▁layer	-14028
ügigkeit	-14029
▁continuous	-14030
▁56	-14031
▁Dres	-14032
▁Tests	-14033
▁Rout	-14034
▁welcomed	-14035
aders	-14036
▁justified	-14037
▁Alltag	-14038
▁gelingt	-14039
▁twenty	-14040
▁stellte	-14041
▁fans	-14042
▁gründ	-14043
▁excurs	-14044
▁führende	-14045
ärkt	-14046
zepte	-14047
▁Grünen	-14048
▁LateRooms	-14049
▁characters	-14050
ami	-14051
asion	-14052
▁unterscheiden	-14053
▁specialist	-14054
ESCO	-14055
▁lunch	-14056
▁68	-14057
arbeitungs	-14058
▁politically	-14059
▁carr	-14060
kultur	-14061
▁Catal	-14062
▁170	-14063
▁einbezogen	-14064
▁significance	-14065
▁harmonisation	-14066
▁könnt	-14067
▁Account	-14068
▁Facilities	-14069
▁Tätigkeiten	-14070
▁Venice	-14071
▁Pension	-14072
▁kontaktieren	-14073
▁CAP	-14074
▁Wär	-14075
pläne	-14076
▁Ebenen	-14077
▁ende	-14078
estra	-14079
▁LT	-14080
well	-14081
▁clubs	-14082
▁Source	-14083
▁legally	-14084
▁directed	-14085
▁videos	-14086
oz	-14087
andt	-14088
▁Spir	-14089
▁gestattet	-14090
▁EX	-14091
▁Korre	-14092
▁Gefäng	-14093
▁zukünftigen	-14094
▁Album	-14095
▁Prozesses	-14096
▁entreprene	-14097
ricted	-14098
▁obser	-14099
▁ersetzen	-14100
▁Berliner	-14101
▁freedoms	-14102
▁Dokumenten	-14103
▁einzusetzen	-14104
▁Au	-14105
▁attrib	-14106
▁sought	-14107
▁radical	-14108
▁Trotzdem	-14109
▁elector	-14110
▁killed	-14111
▁deserv	-14112
▁Millenn	-14113
▁deswegen	-14114
▁Korruption	-14115
▁getragen	-14116
laut	-14117
▁Attra	-14118
übt	-14119
▁movie	-14120
▁umfassend	-14121
▁referendum	-14122
▁beendet	-14123
advant	-14124
▁absor	-14125
▁Zürich	-14126
▁verteilt	-14127
▁ansprechen	-14128
ieß	-14129
▁Fein	-14130
▁Ergän	-14131
auschen	-14132
▁Ausflüge	-14133
▁enterprise	-14134
▁verfügbaren	-14135
▁ré	-14136
▁none	-14137
ränkung	-14138
▁gefallen	-14139
▁retail	-14140
▁imports	-14141
iza	-14142
▁Äg	-14143
ktors	-14144
▁modules	-14145
▁welcomes	-14146
▁illegalen	-14147
▁BE	-14148
annter	-14149
▁Situationen	-14150
▁anschließend	-14151
ulse	-14152
▁Hit	-14153
▁Genießen	-14154
▁unterstreichen	-14155
probleme	-14156
▁empt	-14157
▁rising	-14158
▁studio	-14159
▁experim	-14160
▁homes	-14161
▁Organe	-14162
▁Branche	-14163
ianischen	-14164
aret	-14165
▁Sachen	-14166
▁Transfer	-14167
▁negotiating	-14168
▁ED	-14169
▁wellness	-14170
▁complicated	-14171
▁mitteilen	-14172
▁supervision	-14173
gner	-14174
▁UNESCO	-14175
▁tested	-14176
▁appearance	-14177
ulous	-14178
▁manche	-14179
rock	-14180
oubtedly	-14181
▁Auditors	-14182
▁vorgesehenen	-14183
▁ere	-14184
▁vit	-14185
▁Armee	-14186
▁offene	-14187
▁größeres	-14188
▁hospitality	-14189
▁hast	-14190
rome	-14191
▁forthcoming	-14192
ieller	-14193
▁prime	-14194
▁kne	-14195
▁Valen	-14196
▁Sammlung	-14197
▁Rap	-14198
▁Gottes	-14199
▁ergänzen	-14200
▁looked	-14201
▁Spitzen	-14202
▁defe	-14203
▁selling	-14204
▁behaupten	-14205
▁prosperity	-14206
pot	-14207
▁teile	-14208
▁lasting	-14209
▁Existenz	-14210
▁disadvant	-14211
▁surve	-14212
poration	-14213
▁evident	-14214
▁allocated	-14215
▁vollen	-14216
▁Medizin	-14217
▁Secretary	-14218
anning	-14219
▁bedeutende	-14220
▁AND	-14221
▁hilf	-14222
▁begeg	-14223
▁surely	-14224
▁Abfall	-14225
▁SA	-14226
▁Ruf	-14227
▁asp	-14228
▁Joseph	-14229
▁romantic	-14230
▁Education	-14231
utet	-14232
▁everybody	-14233
▁durchschnitt	-14234
enth	-14235
▁boy	-14236
▁Artik	-14237
▁Stoff	-14238
▁Willkommen	-14239
▁parameters	-14240
▁Freizügigkeit	-14241
▁Ball	-14242
▁Weiteren	-14243
▁ordinary	-14244
▁Perspektive	-14245
▁Übernachtung	-14246
▁Vorgehens	-14247
200	-14248
▁Socialist	-14249
▁amenities	-14250
▁Dikt	-14251
▁herum	-14252
▁künftige	-14253
▁indirect	-14254
▁suffered	-14255
▁labelling	-14256
▁è	-14257
▁compact	-14258
▁societies	-14259
rim	-14260
▁SK	-14261
▁abstimmen	-14262
▁Vul	-14263
stall	-14264
lichten	-14265
oft	-14266
▁originally	-14267
▁contributed	-14268
▁superior	-14269
▁Corporate	-14270
uverän	-14271
▁Beaut	-14272
▁Vereinfach	-14273
ungssystem	-14274
SA	-14275
ureich	-14276
▁Francis	-14277
▁bisherigen	-14278
garten	-14279
▁museums	-14280
▁programming	-14281
▁manip	-14282
▁pharm	-14283
▁Aufsichts	-14284
fernen	-14285
▁proceedings	-14286
▁gebrauch	-14287
▁bike	-14288
▁herunterladen	-14289
point	-14290
▁rück	-14291
ammelt	-14292
▁beings	-14293
▁Dor	-14294
▁cater	-14295
▁Import	-14296
▁konzentriert	-14297
▁unterzeichnet	-14298
drich	-14299
▁realise	-14300
▁beeinträcht	-14301
ärten	-14302
gro	-14303
baus	-14304
cribe	-14305
▁Runde	-14306
▁cells	-14307
▁Saturday	-14308
immers	-14309
▁Ablehnung	-14310
▁konfrontiert	-14311
ötz	-14312
merz	-14313
▁Light	-14314
▁Customer	-14315
▁hervorgehoben	-14316
▁Planeten	-14317
▁Stiftung	-14318
▁Thailand	-14319
▁preventing	-14320
burgh	-14321
▁Moroc	-14322
ätzt	-14323
pfl	-14324
cles	-14325
rifft	-14326
▁Head	-14327
ni	-14328
▁Vista	-14329
▁Lernen	-14330
▁firmly	-14331
▁NGOs	-14332
▁erstre	-14333
▁remained	-14334
iese	-14335
▁ride	-14336
▁Stuttgart	-14337
iale	-14338
▁Louis	-14339
▁Direct	-14340
▁Abendessen	-14341
irs	-14342
▁Alb	-14343
▁Geburt	-14344
▁Piazza	-14345
zuschließen	-14346
▁recognized	-14347
▁Zy	-14348
riere	-14349
▁fees	-14350
▁Betreiber	-14351
▁Christmas	-14352
▁internen	-14353
opolit	-14354
▁vorgeschlagene	-14355
▁lieber	-14356
▁Rückkehr	-14357
▁unterliegen	-14358
▁PSE	-14359
▁Ticket	-14360
▁Mallorca	-14361
▁langfristige	-14362
▁voran	-14363
▁Allianz	-14364
▁Australia	-14365
▁genere	-14366
weich	-14367
▁Vorlage	-14368
▁Hauptbahnhof	-14369
▁functionality	-14370
ökonom	-14371
▁Spekt	-14372
öffnung	-14373
▁Serbia	-14374
ACH	-14375
▁crop	-14376
▁compe	-14377
▁Does	-14378
▁bird	-14379
▁indicate	-14380
▁sections	-14381
▁simultane	-14382
▁nord	-14383
▁begrenzt	-14384
▁EZB	-14385
ipher	-14386
▁juris	-14387
▁Vorder	-14388
▁Americans	-14389
▁Bevölkerungs	-14390
▁islam	-14391
▁hardly	-14392
▁Widerspruch	-14393
IK	-14394
▁cuts	-14395
ICHT	-14396
▁errors	-14397
▁Culture	-14398
▁Komplex	-14399
▁acknowled	-14400
▁geraten	-14401
illed	-14402
betten	-14403
grenze	-14404
▁Frist	-14405
▁arran	-14406
▁Stability	-14407
▁personenbezogen	-14408
▁behoben	-14409
▁missing	-14410
▁1960	-14411
▁judge	-14412
▁angenehm	-14413
OC	-14414
▁Sky	-14415
▁relative	-14416
▁Oste	-14417
▁hochwertige	-14418
▁introducing	-14419
▁hes	-14420
wendungen	-14421
instrument	-14422
drückt	-14423
▁Wähler	-14424
iversary	-14425
▁Islamic	-14426
▁Zeitung	-14427
▁classes	-14428
mitglieder	-14429
ußt	-14430
▁calm	-14431
▁Spann	-14432
auspiel	-14433
▁ergibt	-14434
▁anzuzeigen	-14435
▁Kanada	-14436
▁Should	-14437
▁Meeting	-14438
▁hearing	-14439
▁Emissions	-14440
▁Fahrrad	-14441
▁remarks	-14442
▁recy	-14443
▁Montag	-14444
▁amazing	-14445
▁Nachhaltigkeit	-14446
▁Chinas	-14447
abet	-14448
ployed	-14449
▁Pläne	-14450
▁Widerstand	-14451
pfen	-14452
▁barriers	-14453
▁Miß	-14454
▁enhanced	-14455
▁explained	-14456
▁movements	-14457
beschreibung	-14458
isa	-14459
kapaz	-14460
utral	-14461
▁menschliche	-14462
stal	-14463
▁manif	-14464
▁Geneva	-14465
▁ranging	-14466
ji	-14467
rik	-14468
▁eingegangen	-14469
▁51	-14470
▁rechten	-14471
▁sustainability	-14472
65	-14473
cal	-14474
ugt	-14475
▁kg	-14476
▁organic	-14477
bestimmungen	-14478
▁Aktionsplan	-14479
▁58	-14480
aton	-14481
eschäd	-14482
▁finanziert	-14483
▁saved	-14484
▁militärischen	-14485
▁Euch	-14486
▁Asian	-14487
▁conce	-14488
outique	-14489
▁unzureich	-14490
▁accurate	-14491
ijk	-14492
▁sequ	-14493
▁portug	-14494
laim	-14495
▁30.	-14496
▁sichere	-14497
▁whereas	-14498
▁umfangreiche	-14499
BC	-14500
lers	-14501
▁aufs	-14502
▁metro	-14503
iliation	-14504
▁combine	-14505
▁Level	-14506
ophistic	-14507
▁Monitor	-14508
▁aufgebaut	-14509
opes	-14510
▁Abschaffung	-14511
▁DC	-14512
▁songs	-14513
ords	-14514
▁shar	-14515
▁praktische	-14516
▁endorse	-14517
▁Leitung	-14518
▁concert	-14519
▁Lear	-14520
▁grosse	-14521
▁splend	-14522
▁vessels	-14523
▁transmission	-14524
▁Rod	-14525
▁angest	-14526
▁female	-14527
▁geprägt	-14528
▁exclusion	-14529
▁Opposition	-14530
▁Fünf	-14531
verwaltung	-14532
▁Mah	-14533
▁Bonus	-14534
▁Börse	-14535
▁sam	-14536
unruh	-14537
▁Volkes	-14538
▁anhand	-14539
▁showed	-14540
▁Civil	-14541
▁Schwarz	-14542
▁schlagen	-14543
emark	-14544
▁gebeten	-14545
▁BA	-14546
▁Coll	-14547
▁vereinbart	-14548
▁fascin	-14549
▁adapted	-14550
▁dankbar	-14551
▁collected	-14552
▁investigation	-14553
▁imagine	-14554
▁obstacles	-14555
▁präsentieren	-14556
▁Lith	-14557
▁CP	-14558
cession	-14559
▁Satelliten	-14560
istischer	-14561
▁Hann	-14562
▁läßt	-14563
▁zivil	-14564
▁Consumer	-14565
▁Herstell	-14566
▁zukünftige	-14567
▁enthaltenen	-14568
▁Big	-14569
▁Ägyp	-14570
▁lö	-14571
▁united	-14572
▁Cookies	-14573
▁Steuerung	-14574
▁sogenannten	-14575
▁Katastrophen	-14576
▁ausgehen	-14577
▁Luxemburg	-14578
▁Nachbarn	-14579
▁langfristig	-14580
▁Abhängigkeit	-14581
tere	-14582
▁Add	-14583
▁Autos	-14584
▁habit	-14585
projekt	-14586
▁stocks	-14587
structed	-14588
▁democrat	-14589
▁korr	-14590
▁Maschine	-14591
▁vorliegende	-14592
▁hervorragenden	-14593
nor	-14594
ologien	-14595
▁incred	-14596
▁student	-14597
▁regardless	-14598
▁turning	-14599
▁besonderer	-14600
eitigung	-14601
▁Märkten	-14602
▁tank	-14603
▁Häuser	-14604
▁Erinnerung	-14605
▁exploitation	-14606
▁productivity	-14607
reche	-14608
▁notes	-14609
▁Meines	-14610
▁covering	-14611
▁computers	-14612
▁internationally	-14613
▁ausser	-14614
▁bedeutend	-14615
▁MO	-14616
rein	-14617
▁gerichtet	-14618
▁travelling	-14619
▁Entspannung	-14620
▁Dritten	-14621
quer	-14622
zahlen	-14623
▁Hon	-14624
ifferenz	-14625
▁militärische	-14626
▁Gard	-14627
▁Kirchen	-14628
▁perfekte	-14629
▁CHF	-14630
ugoslaw	-14631
▁Gespräch	-14632
▁Veränderung	-14633
▁dargestellt	-14634
▁Fels	-14635
▁Gleichstellung	-14636
▁etabl	-14637
▁Unions	-14638
▁universities	-14639
oul	-14640
▁angekünd	-14641
▁Reservierung	-14642
▁Binnenmarktes	-14643
▁cart	-14644
▁acceptance	-14645
▁massage	-14646
austausch	-14647
odex	-14648
▁Applik	-14649
▁Parameter	-14650
▁consulting	-14651
▁Commissioners	-14652
▁edition	-14653
▁considerably	-14654
▁Regierungschefs	-14655
nimmt	-14656
grunde	-14657
▁Referenz	-14658
▁verdienen	-14659
herstellung	-14660
greg	-14661
▁Befugnisse	-14662
▁festzulegen	-14663
▁Tok	-14664
▁publish	-14665
▁hingegen	-14666
▁Kontinent	-14667
▁HU	-14668
▁Fal	-14669
▁fleet	-14670
▁synth	-14671
▁Heizung	-14672
▁encounter	-14673
▁gap	-14674
▁Cross	-14675
▁disasters	-14676
▁Internationale	-14677
▁reflected	-14678
▁Grundlagen	-14679
cul	-14680
▁aggress	-14681
▁plastic	-14682
▁Wochenende	-14683
▁Volksgesundheit	-14684
▁generate	-14685
▁Vorausschau	-14686
▁и	-14687
▁anzub	-14688
▁checks	-14689
▁ingred	-14690
▁Pir	-14691
▁Tabak	-14692
▁penalty	-14693
▁jetzigen	-14694
▁aer	-14695
pfung	-14696
▁stret	-14697
▁pretty	-14698
▁geplant	-14699
▁ähnliche	-14700
staatlichen	-14701
sson	-14702
▁Sold	-14703
▁till	-14704
▁schäd	-14705
rolling	-14706
▁Oliven	-14707
uum	-14708
▁Cond	-14709
[...]
